/**
  ******************************************************************************
  * @file    network_1_data_params.c
  * @author  AST Embedded Analytics Research Platform
  * @date    Tue Jul 11 20:25:16 2023
  * @brief   AI Tool Automatic Code Generator for Embedded NN computing
  ******************************************************************************
  * Copyright (c) 2023 STMicroelectronics.
  * All rights reserved.
  *
  * This software is licensed under terms that can be found in the LICENSE file
  * in the root directory of this software component.
  * If no LICENSE file comes with this software, it is provided AS-IS.
  ******************************************************************************
  */

#include "network_1_data_params.h"


/**  Activations Section  ****************************************************/
ai_handle g_network_1_activations_table[1 + 2] = {
  AI_HANDLE_PTR(AI_MAGIC_MARKER),
  AI_HANDLE_PTR(NULL),
  AI_HANDLE_PTR(AI_MAGIC_MARKER),
};




/**  Weights Section  ********************************************************/
AI_ALIGNED(32)
const ai_u64 s_network_1_weights_array_u64[7486] = {
  0x7ff8f0e613d3bf1eU, 0x8e66162de4af7fd9U, 0x7f10c9e6fa93ac0cU, 0xe67fe413e31e181cU,
  0xb9d3dc7fef662c22U, 0x142c24962681edf4U, 0xc3ce25350581ed8dU, 0x28fcdc73197f2d38U,
  0xd917347f02364f06U, 0xcc0f1e81f1c6b01aU, 0x310434c0f77fd1ffU, 0x814ca0bc23ba57b1U,
  0x57e299f12c7f9855U, 0x140464f62c107f4fU, 0xd06546e903b17fe2U, 0x40aaf313057ffd13U,
  0xffffffcdU, 0xffffffe100000004U, 0x2fffffffd1U, 0xffffffb800000032U,
  0x33ffffffd1U, 0x1400000004U, 0xffffffa4ffffffd7U, 0xffffffe20000000bU,
  0xe68cbd81b5e28181U, 0x3c18f5641530d41bU, 0x20d7a499b8988fceU, 0x7f25df72f7d70027U,
  0x81fbbc8cc3b9c7fdU, 0x423c2c5ecd0c60ebU, 0x30fca9b0f3b1d4faU, 0x1669467f7fe4814eU,
  0x385281c33c103d5aU, 0xfe7f38723681987fU, 0xe453d48131661140U, 0xc35d7f30ecc3143bU,
  0x4d7fa4063568e23bU, 0x1b3054dc330df5b9U, 0x56621f037f7ffe57U, 0x392d4fc3f8afc027U,
  0x503c2bda5b1e3525U, 0x3ac20eaeb5dfd02cU, 0x0U, 0x0U,
  0x0U, 0x0U, 0x0U, 0x0U,
  0x0U, 0x0U, 0xfe1e19cc478121ecU, 0xcefed50629eff801U,
  0x61655299fea6153bU, 0x2355a983e17f7822U, 0xf41aef2f271e27d7U, 0x81cd2e662f259f9fU,
  0xa2c51b805d2e82eU, 0xeef82581102c3627U, 0x84230d82fbafca9eU, 0x11f327c67f551724U,
  0x83d781c70867e7bcU, 0x6ccc35c4b7234eafU, 0x6eb3eecdb9f07f4U, 0xf739d1ebd5387f17U,
  0x55e177f30e2681ddU, 0xcb03ab1ea127a6c3U, 0x1d41173b120ed4d1U, 0xa2e9fb18c5167fdeU,
  0x3eefd815a0dc1f1U, 0xf8084439bfc6025eU, 0x810d01e40f2640e2U, 0xd9ffe8215d3e8f71U,
  0xe27f002607d37018U, 0xf3c310c0232213f7U, 0xe8cde0182d0216f9U, 0xc7290a141781da50U,
  0xdbbccd1cb6508121U, 0x63fcfc11e9413105U, 0x346fa0f54101541eU, 0x401238da1523d97fU,
  0xaf153d55b432df9fU, 0x208146d141342815U, 0xb8108e61ad53af0U, 0xeff8bbdf1f13e9dcU,
  0xdedaf37f22d44c1fU, 0x341fdaf9d40e43c5U, 0x9b078124aab82800U, 0x23ffee7fdef50deeU,
  0x62e7f618ed384d7fU, 0x9aa0cdac3e9b15cU, 0x16f3f159f57f4c0dU, 0xfca4fddbf521b693U,
  0xcb98bfb88140cfb1U, 0xd03f9a532132d5c0U, 0x95fa65a790dd3c55U, 0x597fa3f3fbfbda5dU,
  0x8d07e90f3c816aceU, 0xb0f54da6efe08cfeU, 0x3f05bdc004c03661U, 0xcf7faf04cdea37c3U,
  0xdee4a9811c412af3U, 0x35ffffb6ebf8cf05U, 0xc3448eaa57faffeU, 0x7cd2fb05a784ab98U,
  0xed0009e7121220e5U, 0xb8cdede48105e2bcU, 0xcb9f5f9e50be0dfU, 0x57fd4e136cd1a26U,
  0x13f0edd3c11c147bU, 0x21f581acde4d1ce3U, 0xd5440b0181110c4bU, 0x2b07f829dbcaec3bU,
  0x310839e4fd4411d3U, 0xedd06781fe5b27c2U, 0xffffffff7U, 0xb0000002cU,
  0xfffffffefffffffeU, 0x1800000000U, 0xfffffff10000000cU, 0x1c00000007U,
  0xffffffebffffffeaU, 0x39fffffff0U, 0x50000000eU, 0xcffffffe2U,
  0xfffffff700000029U, 0x13ffffffe5U, 0xfffffff4ffffffe3U, 0x22fffffff3U,
  0xbffffffd8U, 0x22ffffffe9U, 0x2fc0e2463c221566U, 0xb0265fb47faa7f47U,
  0x7fce4ab3817499cbU, 0x5900dfc929e081aaU, 0x1fced0570d7fe256U, 0x9224110f2f814e44U,
  0x24f263f2a43fdfbfU, 0x59bcd0e37fa6099fU, 0x2d939e568c36814aU, 0xb5a7dde9e5033c54U,
  0x44d34ebf9c1b13ddU, 0x3af2ea8a63814ca0U, 0x6986e81610f55d43U, 0xd57f7fa709a71559U,
  0x6e817f26fa778181U, 0x7fe7c2291da2f60bU, 0x44bbb736d456247fU, 0xc53e1cb6e7aa2742U,
  0x5b847f7fd47fafb7U, 0x41df81d80c8c4bf7U, 0x1081815482631663U, 0xc2e2f6050d2d266cU,
  0x35926a029f5ecaf2U, 0x33c5ada20e9a47f9U, 0x7ff8db2ce5c0270bU, 0xda5dd58199df972cU,
  0x3d92e059303598efU, 0x49e3b87fc3d67f81U, 0x43acde3681fc564aU, 0x8150b5a49b141434U,
  0x2e8e0470185ddcedU, 0x17a69fb4a59b19a5U, 0x1cc3147fa22b5c55U, 0xf825ddb01765d97fU,
  0x2bb242cfa6a11d8U, 0x81a98ea8d53fc1U, 0x0U, 0x0U,
  0x0U, 0x0U, 0x0U, 0x0U,
  0x0U, 0x0U, 0x0U, 0x0U,
  0x0U, 0x0U, 0x0U, 0x0U,
  0x0U, 0x0U, 0xad72dd3ca5b7b82eU, 0xf5dc0d37810be9afU,
  0x672fcbd3d4d6f50eU, 0x5119d6985f7efe63U, 0xfc256ebf28c7b349U, 0x7e0ac74e3081ed1bU,
  0xd7d11000390cec28U, 0xfeaf4bd747bc152bU, 0x41da81f912f9fe0eU, 0xdfe1aff6c125cadcU,
  0xf0e76fd13f92064bU, 0x8d34208beed24302U, 0x3342be0d79c7a7e6U, 0xeb0e151933f5d381U,
  0xc7f84412c3122a48U, 0xf4ecfe3fa6513d2eU, 0x2e35bf1e298b09cfU, 0x2fb2f1092d1de0a9U,
  0xce4c41f01bec4be1U, 0x3211db2b02226681U, 0x7f903ce6dbf41502U, 0x3da81a01242450bbU,
  0xbbf63009f1393368U, 0xa61bffc3143601a2U, 0xd921fd21c7035f3eU, 0x4154462ab400f8d5U,
  0xe14d2681ff0121e7U, 0x32efc46dfce20817U, 0xb11bd85ee9a0c36cU, 0x5128365f3d43c68fU,
  0x49d3010937ec0faeU, 0x2a34d4e6e4d47fd8U, 0x81d0d45ad715043bU, 0x36f512110512caa0U,
  0x20bfec151b111fefU, 0xb21c2c180dd703d4U, 0x65f40a7fb398ac50U, 0x31ece9d71ce62637U,
  0xb62dd42a1adc06afU, 0x45db20b7e043fb06U, 0xd838ecc3f093f81aU, 0xf4ef17f839fad709U,
  0x2ac72ad88143bc96U, 0xbda00fefd7bd30ebU, 0xffc605f0a91845f8U, 0xf6f2571d1ce86239U,
  0x7fd237dcf86ec1f0U, 0xed3800ef15e5890bU, 0x5bd828a500f33cebU, 0x1119fad8720e8116U,
  0xbae7efad2d0f86d4U, 0x98fbed4801e90753U, 0xfe4e1c6e20bc8115U, 0xfb6cfc9dff8c6701U,
  0x4a09ffb657f632dU, 0x96d12a13d907ae62U, 0xfdbfdecad8dbc334U, 0xe42047350b1c29eeU,
  0x1ff0041c1e0a3faaU, 0x28ece8043e81ec07U, 0xf435f3fecadf1fdbU, 0x81b91068f5bccd1eU,
  0xfdec0cf7fe52dd09U, 0xf920e038d30c0939U, 0xe1f8f909d6302118U, 0x1df5f81cf633cf16U,
  0x192b13b236d1012cU, 0xea17f9227ff3e910U, 0xfa40cce043fd2de8U, 0xdd40350f7fe2f604U,
  0x804c0cf43e54e1fU, 0xb37c6f5e231faf3U, 0x2412e1d714f0e0ccU, 0xe71b9b1ad2a511d3U,
  0xabd31635412934f8U, 0x9da247f1de8bb01U, 0xd5e9f5c8e5eb05deU, 0x1ce4ed02f1fd2ef5U,
  0xe0347f1f252aace6U, 0x101de004e20cd1f3U, 0x11494deffd6d636U, 0xf31109cd4c0b0fa1U,
  0x3e22fe1a10ca9416U, 0xa0831157fb47bddU, 0x3724fa4d02e624d1U, 0xe93274facd55d9d3U,
  0xd4cffcc7e4390dd3U, 0x112481cbf7d33892U, 0xefa631ed81112515U, 0x2b8818f40bbefe5cU,
  0x2f2ee490230de743U, 0x2125e5fc0811ec12U, 0x1ae6d1e5060d59e6U, 0x2f2aa7c14655d2bfU,
  0x33819ee7cbf4dadcU, 0x9ec1cc2515e127d5U, 0xfa2733302321ee50U, 0x3061d8850e4a1216U,
  0xf13dd0bf95510fcU, 0x2ef12eeaf10ae781U, 0x525f3dc1221096eU, 0x8e407cafbfbf63aU,
  0x32dcf97ffd9ff7c2U, 0xf7ca2bc4181edd12U, 0x82704e7227fcd2dU, 0xe5e31309e6169fd7U,
  0xc427df360a1fe518U, 0xdd213111dbe235fcU, 0xaf9393e3c1e3d70fU, 0xb9afdf02b92a7eb7U,
  0xdd0244194517feeeU, 0xc5a128b21481e4f8U, 0xb0eae00020dfde4cU, 0x9acf11dd23f4e704U,
  0xd0ea433051a40c4U, 0x7f00cc18c7570d34U, 0x15fb1d11fdc7f8feU, 0xad36c2cd0518daccU,
  0xbd7f31ebf1eeeeb6U, 0x150c9c38ccffe918U, 0xb3dec71fbd40d40eU, 0x36a57a174ed127f0U,
  0x5e210fe0fa44c313U, 0xbb7f7f54e127f73aU, 0xe5de58ec28e03e31U, 0x7ff0c452235739a8U,
  0xbd3f0a2433cc31b3U, 0xae15071bff27f7e4U, 0x2000000016U, 0x1d00000000U,
  0x40000000bU, 0xfffffff90000000dU, 0xffffffe700000014U, 0xffffffc4fffffff2U,
  0x2100000013U, 0xffffffe8ffffffdfU, 0xd00000003U, 0xfffffffc0000000bU,
  0xffffffdcfffffff4U, 0xffffffe9fffffffbU, 0xfffffff1fffffff1U, 0xffffffeb00000009U,
  0xfffffffc00000002U, 0x3d0000000cU, 0x81bbf52de9e99818U, 0x503dee9fe8825e3U,
  0x453efb0cebf0010dU, 0x10dd315b01811427U, 0x2455ada313528c6U, 0xe60474815686feedU,
  0xec601c07e502d9c1U, 0x249668486a814d16U, 0x19b11178b546067fU, 0x4ef3a3cbd4011a13U,
  0xd5a3f681d46107U, 0x8f4fcafceddb36ecU, 0x4fd40fc6147c465eU, 0x1a7981eebff69846U,
  0x81d335301cf6890dU, 0x4bc21ca858f4e21eU, 0xc0097f36290fb679U, 0x59070cf736221d55U,
  0xc287b69cddf735abU, 0x81182ba64bc8c8b5U, 0xc1acffcbbc55e12aU, 0xe59d81d3b32111c8U,
  0xd1dc28e54bbf30e8U, 0x35c026f57f133c5bU, 0xfa01ddf4b3d2051cU, 0x2801c131810f0910U,
  0x272dfdc97ff72407U, 0x20f32cf937082518U, 0x190ace4dd548f24fU, 0x7ff4e3521bd70f4dU,
  0x89e6d72c92fb8111U, 0xe9e715ee5acf249fU, 0x34205c309153dfeU, 0x7f18ee09ef243307U,
  0x7f40fe16754d57bfU, 0x71dbde6db34ad755U, 0x3ecbd70011121206U, 0xd100b113812fd901U,
  0x1081150ccdfe05f6U, 0xd93bc1d6d4cdefafU, 0xc281f6e0398ee1c7U, 0x3111d2e41624bce3U,
  0x992c50781011211U, 0x4e02a1f795d4f0d7U, 0x7fae1dc237fff5b1U, 0xc9d6c2dcec0d9df9U,
  0xf081e61d1bfec0d1U, 0x32dedffbe33bfaf8U, 0x30602fcd912d125U, 0xded614c508132581U,
  0xe4b2f845e40bdae2U, 0xbf181ed8da2f4ddU, 0xcbf15a81fe3913b6U, 0x9d04bece9d0a168aU,
  0x4cdbe1144081dabfU, 0x59baacfcbf4fb4d3U, 0xef0e2dbd43d4e7a4U, 0xd3b97fa259f0a3e4U,
  0xf4d76cc869f79104U, 0xe1bace81be25e11cU, 0x250118f1513b1c21U, 0x593a20eb1f3d267fU,
  0x117f94ffbfef2a43U, 0x430f644e60e8333eU, 0xffffffba0000000cU, 0xffffffee00000005U,
  0xdffffffd9U, 0xfffffff2fffffff8U, 0xffffffe5ffffffecU, 0xffffffaf0000002aU,
  0x100000011U, 0xffffffdbffffffceU, 0xffffffa3ffffffa2U, 0xf0000000cU,
  0x1700000009U, 0x5ffffffebU, 0x250000002cU, 0xfffffff2ffffffcdU,
  0x100000001dU, 0x3ffffffb3U, 0x7fb8da980270eed4U, 0x66c62c05dc8f39feU,
  0xcdb48d24ff13f6f7U, 0xfa86e98161e25f27U, 0x5ae20a9516db31e0U, 0x75277f34e6816566U,
  0x2681dae3dda44a10U, 0x81e281e355062b3bU, 0x931c505e41c6e920U, 0xe9590e6ac4877f56U,
  0x70be0ca028ae412bU, 0xa536bc12450c3c29U, 0x6ad881b13c1b3081U, 0xf8f092e81b12abcU,
  0xbbe90adee9da0740U, 0xd1cbeea639b40bffU, 0x589eee81bdb13902U, 0x6fd14c5e8adf301eU,
  0xdfc579f83897f7fU, 0xc22caef08bcbf1a3U, 0xabce52e0fac3c054U, 0xff5f007f9fb53d6dU,
  0x3ff576810ce85a65U, 0xe943aeec810c55f3U, 0xea7fb7fb1ede5abbU, 0x8183eaf0f90ae381U,
  0x9b61cc1afd30f80cU, 0xf9af2cf911d4810dU, 0x164a14ed81aa7f51U, 0xd481b2f6cd7be4a9U,
  0x817b21508109321eU, 0x9681557b9c819a81U, 0xf6012a288f81a16cU, 0xe2f5af24d24bfd25U,
  0xcd417f14ee7f0e3cU, 0xb6dff24dbcc3eaf1U, 0x0U, 0x0U,
  0x0U, 0x0U, 0x0U, 0x0U,
  0x0U, 0x0U, 0x0U, 0x0U,
  0x0U, 0x0U, 0x0U, 0x0U,
  0x0U, 0x0U, 0xede4cb3ad340172dU, 0x10f2b61efef553e8U,
  0x1b8447e1161af3a6U, 0xe781fd2ede19b043U, 0x47e0f116c4d7f0f5U, 0x2f0910f5e5063f21U,
  0xd932e5b6e11074U, 0x322315dfe381b71dU, 0xea296df303fb4215U, 0xe1c0e3d3032c0708U,
  0xd804c533d91fe942U, 0xce81372c02fffd28U, 0x7f0939e4df2ac77dU, 0xcaf8069cecfbecc4U,
  0x30ed9f0a3ceedbe1U, 0x53d7f42cd9f31326U, 0xe2100002411a7fU, 0xffed05ea23f712bcU,
  0xf00c140e06e302fdU, 0xf5dac7033409ef1eU, 0x7fc1ffcdc2025b92U, 0xfec0d90612e81e2dU,
  0x438adbefc7f537d2U, 0x9353368149561ed2U, 0xf50253122a2ce543U, 0xd7f214c6431f1bddU,
  0xcdd581d018d31405U, 0x5cc7f0fd16e0d628U, 0xd8e5c47feb88e2e5U, 0x3bbce9b01c15d5c1U,
  0xfd2f0d0332340572U, 0xb903e414bd1e4d2dU, 0x5f263f1218f85406U, 0xe1237ffe3050d237U,
  0xea323d661bc1ed2bU, 0xce3e17e5d2faf90eU, 0xa42b3210ebb5b90fU, 0xb8767f1e54180e13U,
  0x4e2b043ee43601efU, 0xcdd3cf3dd5f0d014U, 0xf8fcfde0a4ee2d11U, 0x6ec281051f4014e2U,
  0x21acf826e8452229U, 0xe8f9fcd6cfdbd913U, 0x14fc25ea30260a1fU, 0xea05e5b4304aaf06U,
  0xf16ed27f30fefe01U, 0xdeebf7fc1750deeaU, 0xf61ee8df7f02efeaU, 0xeeadf010fd86f15U,
  0xeae3ddfa0f2ece02U, 0x3815f0154e5000c9U, 0xf6eef681fddee112U, 0x1538dccbff050c2cU,
  0x12e62ac8a411daf1U, 0xf2fc0a01d0191314U, 0xf5cef60d4c23df28U, 0x37ebe2f5dc9222f5U,
  0xe8f22ffeda1e810dU, 0x40e5b41bec0017efU, 0x1f0d13881352bf0U, 0x290bde2883c8aaeeU,
  0x27052adf19c62e10U, 0xf6111ae2282c2623U, 0x7f22d0ef1b2a0018U, 0x1dd5d7e0ff0d08a8U,
  0x82ded264f40e47f1U, 0x23d319ec1ffe02e4U, 0x3b2d00b433ca30f7U, 0xbee3914812efe5f3U,
  0x13ff26ffce1eb9dcU, 0xf0c93225e91dc281U, 0xffe806d939cb61adU, 0xa5fd2ac502fb05baU,
  0xb97ce0f7810f3a56U, 0xc0ca0c11df5340daU, 0xf5dbcdd56dd132b5U, 0xc1fc0ba565296a54U,
  0x7f06fcb5fe5a7708U, 0xb1c1fc99163d4639U, 0xcac13efb7bd109ebU, 0x67d40e174d099609U,
  0xe27f4a4ad6cbbdf4U, 0xf4de11562e766a76U, 0x271ad0e7513b0a3dU, 0x5130be1fce88102U,
  0xfc57082b05c4dafbU, 0xe085a46e5086ae5U, 0xeeaaf2d0d1322b3cU, 0x2503ab5bddd9dec5U,
  0xf6d60714d3df05f0U, 0xf90e26292c4bf981U, 0x63a525fd48094781U, 0x1114d5c5ec3f085cU,
  0xfc3e0eb51706cc13U, 0xe909a4e2cde83f06U, 0xcc01fcd845f9ce6dU, 0x2c3600020cf735f0U,
  0xf8385eea10fb023cU, 0xe2faf3da7f270f03U, 0xfae43d7314490bc4U, 0x810933cc1b68213eU,
  0x13d79a08501a19f0U, 0xe40ef6feffbd0662U, 0xb9caf60a0cf40eb4U, 0x1936f714ae4abf21U,
  0x1e20fbd3aafd26b0U, 0xf5d5d7810111e9f0U, 0x40d635ef5e17f3bcU, 0x5decd43b22c5d4d6U,
  0x465cca198100b838U, 0xfab800dcce1b22d5U, 0x7f1b4eced11600e2U, 0xcf20293de21b07dfU,
  0xe2112944fe30d12dU, 0xf31e3dea41360c42U, 0xaee1b72d053425f2U, 0xdac7f0fee5f3277fU,
  0x3f3f6c6051404f7U, 0xaa3d1aff9be613fbU, 0x13e5ffe25ab2fccU, 0x5437f02a3eb24733U,
  0x1bf41a17e7792b19U, 0x2ce919f8fd053b7fU, 0xf7cef41ce3f4580fU, 0xf70ee6def5fa02d1U,
  0x4f15ebf0ee078131U, 0xdcf1e8f0213e3bdaU, 0x2f1081f80da10837U, 0x7a9c07150c7f00fdU,
  0xd02b18de8b0b8eeaU, 0x1deda9e2463fbfeeU, 0xab44feef260cdd1cU, 0xb15d61664493c31U,
  0x4a1f2881dbcaef23U, 0x4e327afbc9b302c2U, 0xfefa13fd24080d12U, 0x8fe391f48e4b929U,
  0x40122232aebedaf9U, 0xfb205239e1fcb37fU, 0x1be0ac097e28753cU, 0x93dfa440184ae0d3U,
  0x1813b640bb8e957U, 0x2b3ac644ac696fd4U, 0xf03fdf35faac56fbU, 0x3ae0fedd6e7f421bU,
  0xfdc528d73ddc2f10U, 0xfd28142bbf49c0f3U, 0x19c5000f09cc3527U, 0xce41f163927e508U,
  0xd0f87ffc17c60b6cU, 0xebe600e1000d1a37U, 0xe2e5d3c824bd471aU, 0xf42306092bf2152bU,
  0xc2442372be813cdU, 0xbaf714ec237fc61cU, 0x1cf945f7072be8dbU, 0xeb4ced0710bff5f0U,
  0x547fc6f300c00142U, 0xfc05eb6938f42a06U, 0x57f7e93407d51181U, 0x1cdf4834e1f9f7c9U,
  0x3145f818c90c2729U, 0xe1b2f9c219454d46U, 0xddd0e8d02405fefbU, 0x27cec6e6f0e70bf4U,
  0x1df61f460e392bfdU, 0xdf7f57359f191df5U, 0xefbe4dfd014f245U, 0xfd4ee9da0f000923U,
  0x6e9edcebc6c3e9d8U, 0xd3fc687f3f0619e9U, 0xf17fe74316badebeU, 0x707b429510e59916U,
  0xdee0e12d4d93fc46U, 0x28dbd8e3125241c3U, 0xfdbbcccaca0ccb68U, 0x3224cd18de8c3b30U,
  0x66fc0c3ae13fdfbaU, 0xfe7f1d0b2b442a53U, 0x43c97f46ab2b27d6U, 0x1216f32e1f23d970U,
  0x62043312250babddU, 0xaf3e4ebaf119e6d9U, 0x1747d00f1ee87ffdU, 0x42f107d93645eedeU,
  0xcf4d9191d3d1ec7U, 0xd9ca0efa220cbed1U, 0x2f07f41acbe52e31U, 0xe8f55623f517ca39U,
  0xfbf31942edbbdcccU, 0x90e951dc1acf8154U, 0x81f3fa04ccf7f537U, 0x18d191e24726ece9U,
  0x2ec01420a515a1a6U, 0x401dc612cd2df206U, 0x9d6190c480a24cfU, 0xd504ea25d63e24d9U,
  0xc4371fdbe2062e7fU, 0xc2db262fdee8cbb2U, 0xd333441809f1020eU, 0x457f131c2ae8132cU,
  0x2e2bf6eceb13bd1bU, 0xdc2008bbc51503edU, 0x4b2a13cbfb08313bU, 0xa366cfd27352c21U,
  0xf7f9de08058102f4U, 0xfe1def0db9d7282dU, 0xfebc1ed7e6df9938U, 0x2cc73f00eabba557U,
  0xf92153f2bce5c181U, 0xcf2a1ada7527f322U, 0x45a6499af3f138daU, 0xf730d97f38211e0aU,
  0x200fd0c2fbd1216U, 0xf4eff50d56cfdec9U, 0xfa55c3d51ac78110U, 0xf7b61b074c31161dU,
  0x2435c5edcac5ba38U, 0x1139f138ab3448ebU, 0x1d1c707f8f4cceabU, 0x5f593672683e73fdU,
  0x33d508fa2d3df5d9U, 0x77464bfc0e3b9f37U, 0x64fd3ef1caffd4f7U, 0x2044e2fcea15fa7fU,
  0x2c0919b752f819d3U, 0x93e13cad5b05b8c7U, 0x113c22b91634ca2cU, 0x7f30c4f410ed54e5U,
  0xf8d9e8094a0451d7U, 0xdcbfb6b60ae701c5U, 0xc6d1dfb44ebd0bf5U, 0xb623c641f1741c8bU,
  0x6abfed5bb80a4224U, 0x53810c23fdc8ab18U, 0xdd27ece5bb565845U, 0xffd1e62646292d81U,
  0xf0eaa16f31a9e815U, 0xd8eee648070126fcU, 0xd9e61fccb825e634U, 0xd5e7b21815212aceU,
  0xd41d1e2981d5c851U, 0xd906bf6a16eefa0eU, 0x170181ca01d2062cU, 0x17de1be40ff9fbf6U,
  0xcbeee3f9fdc9160cU, 0x9321f16f3081e1eU, 0xaaf5f34ee70c7427U, 0x2c55cb5b01f25781U,
  0xbf11ed2e48233045U, 0xe2bebf1a1a1319U, 0x5313f014d6cb3b59U, 0xfa1a14136e024d4aU,
  0x8a2e7651fa088401U, 0xb3550281fc4f5656U, 0xfffffffbfffffff4U, 0x300000001fU,
  0xffffffc9fffffff9U, 0xfffffffe00000016U, 0x3ffffffefU, 0x1a00000001U,
  0x1100000017U, 0xfffffff2ffffffffU, 0xffffffee0000000dU, 0xfffffffcffffffe3U,
  0xffffffecfffffffaU, 0xfffffff9ffffffd5U, 0x1200000002U, 0xfffffff6ffffffeeU,
  0xffffffe200000006U, 0x1000000000U, 0xfffffffcffffffe5U, 0xffffffffffffffe5U,
  0xfffffff50000000bU, 0xfffffff7fffffff2U, 0xfffffff8fffffff7U, 0xfffffff700000002U,
  0xffffffe8fffffffaU, 0xffffffe000000012U, 0xfffffffb0000000fU, 0xffffffeafffffff2U,
  0xffffffdfffffffeaU, 0x2800000001U, 0x7fffffff1U, 0xffffffff00000002U,
  0xfffffffefffffffaU, 0xfffffff2fffffffeU, 0x7f3b81c6f1c281ccU, 0x6607983930fbf791U,
  0x1e34bdc48192b9d1U, 0x4516c1f529d80981U, 0x390c6f48ce15cd91U, 0x53ea42ebb9e5f7adU,
  0x4d055839d2a2ab97U, 0xb218cdf3db38e298U, 0x78329781ffa7c5e2U, 0x50df262cc1b35787U,
  0x340ce14ea98198e5U, 0x7f1ef5d976b702b9U, 0x5c581a7f1566f681U, 0x70cf0fb69c7292b2U,
  0xc2d37e399081d181U, 0xade326d0ec88ebaeU, 0x671391b412c7f0dcU, 0x7fed7f480abc6003U,
  0xfc050264020af75fU, 0x635dfcee7ff1efe6U, 0x204ce15b612ce994U, 0x51f20981974181d4U,
  0xa1b87dcda0dbddc4U, 0xb7f851d1dc81e04bU, 0x2abed50b8147e481U, 0xcbf8c542de0cdf6U,
  0xa752c2c916aabeb6U, 0xd356e5c553e6dc4dU, 0x732e1239817350daU, 0xca7f7f4ecd2dd82dU,
  0x7fc9037fc0c01fcfU, 0xfe7d7f7ce979f412U, 0x49a4c4a3eef1cecdU, 0x1481012046a95760U,
  0x133ea1fef9adf91aU, 0xb57f9c8c6a3ebd78U, 0x7f028158e27f3fb3U, 0xec355d08a864b478U,
  0x19d17f2a81d43dfeU, 0x59386b4634c22f37U, 0x23b9c3aa29ade0dbU, 0x62bc6bfb69817f7fU,
  0x4122ae7fe4074961U, 0x9950a8a86b39ef2fU, 0x574ca2167c40e38cU, 0xf33517079d3ea153U,
  0x98b95595aef70a1eU, 0xbc4faed70ab057fU, 0xe8cf04f29349dcb6U, 0xae8683f67fecd1e5U,
  0x817fbea742e57f81U, 0x4049cf8e09238141U, 0x76d9330fd83d7f28U, 0x811c4e3fda57d1bdU,
  0x5719b35a01448158U, 0x387f4f7ff45b62f5U, 0xf09ba5eec571fcd5U, 0xc38161d76fe412edU,
  0xba3181a87a427030U, 0x2b4ba081fd7f8a7fU, 0x5a81bf229b2b7579U, 0xcfba574c817f9681U,
  0x317f01c8f966ab5aU, 0x7f3d060d6cf77f12U, 0xd381d0d9e87f13faU, 0x3fca728177d32f20U,
  0x2129bb055c2d406aU, 0xedd481d24833ee06U, 0x2ca0cc31345e4de1U, 0xbba9c723ce3cbf89U,
  0x943f78ffa39e03cU, 0x60b1abbc7ff05b28U, 0x0U, 0x0U,
  0x0U, 0x0U, 0x0U, 0x0U,
  0x0U, 0x0U, 0x0U, 0x0U,
  0x0U, 0x0U, 0x0U, 0x0U,
  0x0U, 0x0U, 0x0U, 0x0U,
  0x0U, 0x0U, 0x0U, 0x0U,
  0x0U, 0x0U, 0x0U, 0x0U,
  0x0U, 0x0U, 0x0U, 0x0U,
  0x0U, 0x0U, 0xcbe2494a5af9191fU, 0xd60c28f5bdf5faddU,
  0xbf1d5d0ce61011e7U, 0xe90137e301fd04bfU, 0x35e710ccc51fda1aU, 0xd0c0cbf6181722d2U,
  0xe42a19d6fb09fdfcU, 0xa7f03f164f92012U, 0x91e6f615ef0a2433U, 0xf339022efbf6c7cfU,
  0xf9071e0f3023bf21U, 0xd8e47f204f40d817U, 0xdc9efd903f50a53U, 0xe7e135f5ef2d07e1U,
  0x6e72417fce72c15U, 0xf8d9f5d94bc30b16U, 0xe3ff0cdddf492f7fU, 0x5daa35c7ed28faceU,
  0x61ed1cf5386441fbU, 0xf4d70710ce51fd4cU, 0x920c159aee0630c0U, 0x225adaf52521ccd7U,
  0x34d746590219cdfcU, 0x3c211dfdf0282712U, 0xb34c45b5e23010c4U, 0xea2cfbcd2af481f0U,
  0x3322b83b10f3ee13U, 0x1db6250be7ea5f17U, 0xef232e261332364bU, 0xd8e6d01a163212f6U,
  0x8efe51c9ff9ecb6U, 0x23e474d6a8f80ca4U, 0xecf4fdc93ee4d820U, 0xe5cea2e72518f626U,
  0x5f15007c31ac0a7U, 0x2616e111d4e13c2eU, 0xfaccba2b1dcb15efU, 0xd081fe6af110c9eaU,
  0x2ad60304dab306abU, 0xfa2817b4f7e8ca5cU, 0xe6fce738acfd0de9U, 0xdd3efd338043a19U,
  0x14d2d897e8f6f21bU, 0xcece0ee00b0c7fe9U, 0x35f8ef1f23185644U, 0x2902ccdd01f3eaecU,
  0xf11ded100a232607U, 0x1e0e50b1827fb00U, 0xae38dbacb3d60cdcU, 0xe2d6970ae3da31f7U,
  0x9a06edf4ffccff19U, 0xd52d03dd3fe42205U, 0x63cc7eea5ff4f06U, 0x7ff022174013f1f9U,
  0xdc44fe273b25fe33U, 0x26ce169b22cd05c5U, 0xf3e3eb17c7eb0a16U, 0xdd2a33e41113d4fdU,
  0xd3012216de34e2b4U, 0xf7ecf9c8e8e4081fU, 0xeee4e5e7b60a0529U, 0x1e0232dc21f81fefU,
  0x54edf381d6e00de4U, 0xe234c4ab0dfc00f6U, 0x15129bed24f92ae3U, 0xb13c0535e9c7da68U,
  0xc6a282eaec764f52U, 0x2e36fbef477ffaa6U, 0xde2f58bd0040ac5fU, 0xcbde5a10f0cef033U,
  0xe0c755b109f3f0c4U, 0xcfc3aecff94e26d0U, 0xe7fde35707f7e7e9U, 0xe9e0dcefc08f9f0U,
  0xe048e1070ed32312U, 0x3bd214070d18f3eeU, 0xecf74bf812e7df2aU, 0xfd0419fad7f5ecd2U,
  0x1f0357bb2e00cc7fU, 0xd905ef1910031b14U, 0x1230adbfc29293cU, 0x117f3035f41c2316U,
  0xff3e4fafa49fad5U, 0x17ffa80af9f7221aU, 0x327c336f9d807ffU, 0xfd24c51563070822U,
  0xf21914ea3005f1f6U, 0x304c35064012ca2eU, 0x211d2ef9351c43d2U, 0xfce6273ad8d7c3e1U,
  0x1cecee4e1818fbb4U, 0x12d017d50a34eaeeU, 0x2a1be82f33fefcd8U, 0xe134f9bd05130e1fU,
  0xec9a25c2f5d60fe2U, 0xea58ef14f06c7f11U, 0xbf7f9ef75d17c5f3U, 0xceeaea38d6b185e1U,
  0x4624299f444e4cd3U, 0xf237c4eca51e26d4U, 0xd6173bebb2fd191eU, 0xe2e8d7f5cf1ce5e5U,
  0xf2a4d5f521ba16c1U, 0x44370154bf6cfcecU, 0xac15f6eb010319faU, 0xe3be8bf1003d8e5U,
  0x3fb23431c1ac0c6U, 0xe4b626ef050240a7U, 0x7ff8e5bc5121e3f3U, 0x517c31cc4e42acfU,
  0x3cc0d44dfd2310eU, 0xb726f70ecc0af7ddU, 0x9b1b0f4ac715fcf3U, 0xd421f70709bdd313U,
  0x2c4ffed0bf481d5U, 0xeba0014ceebf3b2U, 0xcb01f8caf6e11f01U, 0xb6f0d8c77df00df8U,
  0x48273cfbc956411eU, 0xd0d6c4e0f607c70eU, 0x26e1b6ca17f2ece7U, 0xffefb30502cbd818U,
  0xc3062c26f5daf41aU, 0xf9fe042e2af3ff51U, 0xca8f57f4251bbbfU, 0xba70859064cf949U,
  0x5e03c8caf905b227U, 0xfae598fd25f2f30bU, 0x35530c021c247f1dU, 0xfa0e1eee0d132e28U,
  0x27cf23ef264b0538U, 0x1e1cab60e4cae207U, 0x8f331cfdf5efdb24U, 0xeacd04e7380dc137U,
  0xf3e929e3d1dbd22cU, 0xbeb2f4b9a1915f7U, 0xda7f2ef8e517ec2eU, 0x123150eea1b5d49fU,
  0x4ce7fd49ade4fa0cU, 0x1ff925143ab3ee11U, 0xec2331bf10ddfc4fU, 0xd6fd10cc15ed2bcaU,
  0x2f5007f12b0ae934U, 0x3d0f62535313404U, 0x1021fa3a19f90ae4U, 0x2fe080311d6d8ddU,
  0xeecb19200deaf5d5U, 0xfc005eabf3fb5b15U, 0xf43518d1110203efU, 0x1147f11dd392c0bU,
  0xf3262e3d04ea0b1bU, 0xcaf009d20602db05U, 0xfdc916e730f725e8U, 0xd80933f6a81eedbfU,
  0xefc81255cc0e1708U, 0xf581dfdfddfc02e6U, 0x61b0df8d4edfff8U, 0xe4fd11f3fe011324U,
  0x13f9d8fc02303dbdU, 0xe719bc30e330eed9U, 0x3a5ba25e3a215e9U, 0xea24ff14f599f31eU,
  0x4ad637cdcfceb5f8U, 0x4b815eea17acc300U, 0xa1b0ec433c8e002U, 0xeb2263bb1c3dc40bU,
  0xbd46fb64c523da04U, 0x3500e9c7ecdb81ebU, 0xa9213a0f4403098fU, 0xde4233242127d1efU,
  0xbd98d64d2ce320fbU, 0x1ad6fd1bfdc5cf35U, 0x2cfaaf09f0b2f9f7U, 0x3ed0d7e367e55909U,
  0x410a3181433edc05U, 0xded012ab07ca1188U, 0xfaf00a3532f506cfU, 0xe20efc130ba2cac3U,
  0x20b0e3a393d6acf4U, 0x19e1031ec8b91628U, 0xdaa05beaf84881d0U, 0xbe563c252a06d4edU,
  0x21b23b6224bfe15U, 0xa0e85fcb62efb0fU, 0xd34903192737cd07U, 0xd619d718bfe9071eU,
  0x7fbd5ddb8bd118edU, 0xfb1de43cf6eaf427U, 0x3d28ef1f260a0601U, 0x1ac623eee5c853fbU,
  0x2ece2ed8051a071fU, 0xa122d3e4a3bdcafcU, 0xe1e92a12ef0929f9U, 0xff053e58b4bb5458U,
  0x17da480de866a1b6U, 0x4afb10fffe4994cfU, 0xf7e9d50422ad940bU, 0x1d5b3c8042f04f9U,
  0x392c5229b57ff23aU, 0xb90622ecba09fe18U, 0x86cee0f6cad0390cU, 0xa405d21cc4cfe7fbU,
  0x81422bc815c38913U, 0xbc14251176fca11aU, 0x9a55be431df3d2f6U, 0xef4f2a48efa3caf3U,
  0xbf603bb28f43f46U, 0xd7ca39025d9be50dU, 0xff32470f2b250cd3U, 0x1323022c1617f6f7U,
  0xc2307dcd5061c20U, 0x17f8f8142a01e9f3U, 0x115ddf6810805f1U, 0x2529f7e3f32006f5U,
  0xb301fea200fee1bU, 0xdd260b171c36f0feU, 0xbf17f1e7277fd929U, 0x1f3cf4040b213f2eU,
  0x61b401f503f0b6c0U, 0x3be71a9cd10b4345U, 0xfa1a19cb3527ebb0U, 0xcb041fda2aff1cdfU,
  0x3708e12ea241bad2U, 0x531c02c9e49d1fcdU, 0xcbdd1fab30f2d774U, 0x7f4a3e07eeffd836U,
  0xf82744fff9c7b197U, 0x27b62fdde021e63cU, 0x1be8f4bb12a967d5U, 0xb926118d57444c18U,
  0x1ad3b34606ddbeU, 0xf029d3d8cf3405deU, 0x1b2119d0eac1e7c7U, 0x7ec1f9fb26eb0781U,
  0xf30eda2726d2f5feU, 0xda61c2795ce4202U, 0xef272f12c6903b02U, 0xd41dfa83091e4e0cU,
  0x9829fde430fe520cU, 0x8f32e09f6fa140cU, 0xd01df5d139ac3e35U, 0x1e67e4d3c32ab808U,
  0xa96ddda0ae101e5U, 0x89382deec1202826U, 0x97a2caf3f7e0ebf6U, 0xb1bb2b483fce2e60U,
  0x2e1fbee81fd65405U, 0x5bbe2f227f07dfddU, 0xacd0fd909bda9e0U, 0x43ea3e23f2f9b7c5U,
  0x3ba5871f4bc098eU, 0x347c4d63605e21eU, 0x5501ba1510dff4b5U, 0x1e791a10e0a52101U,
  0x11d8f3c74806e5abU, 0xe0297f2706d316a4U, 0xdcee2ce6fddcfc2dU, 0x150feb4eaa4919efU,
  0x1bd9e11860dab163U, 0x6d9cab405d702f9U, 0xf54221c8dfff06ddU, 0x3723d10615c50081U,
  0x2310b41025d421f6U, 0xd6f8de42350d58e9U, 0xe3e1ec3b0cfcba4cU, 0x14c93fefe4cfa704U,
  0x81f3a7ebbd25e364U, 0xcdfaf462087c1552U, 0xdf97601a5dc0d2c9U, 0xee2ff5d01f02b93dU,
  0xfa1a2aadede73010U, 0x9ecdbe574014fbdaU, 0xcd2d1cd73fe30c6dU, 0x5ea08eafb6d3716U,
  0x39301cee03ce0bbeU, 0xcce04406e619054aU, 0x81ef262d982023eeU, 0xf18f7460f1503c8U,
  0xe33b07cb034f1b14U, 0x31231af82cf11d64U, 0x92362c2420fee846U, 0x6f34f81162c023fbU,
  0x3ede4ae219f419abU, 0xe2e738dcc2ec547fU, 0x14e819b701c9f516U, 0xf10f0bd5ecada15U,
  0x721e8f121ecd832U, 0x32f4df1bcb256016U, 0x13ed033d211e2ae0U, 0xc034fe8119d5bef5U,
  0x28c2cf090023e05aU, 0xef8eb28d2ef21ceU, 0xb23d200f3fa5600U, 0xf40cff012019f6faU,
  0x320be200d429f0c1U, 0xf13269f1f7edfaddU, 0x2f603228092f0ecfU, 0xf631ed2bbddcfef6U,
  0xc4aff0094340f5f8U, 0x2116210e9b10d4U, 0xccf30bb5e97fda39U, 0x4215de22a90866d4U,
  0xf12ad2c2f8c818f8U, 0xf2f5eebb5618182aU, 0x211ee22c404521f2U, 0x420679aff017440aU,
  0xdb2429e7e7d3e20bU, 0xf9d9234158bf33adU, 0x95a454c7ed2bf1bbU, 0x8c20d92ce77f5001U,
  0xf62856e74453310dU, 0xe2d0da3bb416c4eeU, 0x1a3e1cceeb628bdbU, 0xe07f212cd3ebf9fdU,
  0xf506daebfd47c63cU, 0x4331130e1bc137a0U, 0x3c1f36a22aeedb08U, 0xf9e9bb033af210b4U,
  0x73ff3abd28459ac8U, 0xc728240515b73d73U, 0xea42acd10cfbfa29U, 0xfa165305011f05edU,
  0x4cff0ed7d6d73212U, 0xe909f817f90a0004U, 0xfc27011dc7effe20U, 0xf2ff551808a70c18U,
  0x43eb38d53e7f13e0U, 0xd6e7000b181b173cU, 0xf7e32e05cdd01ee7U, 0xdc1143d4dc15b6c2U,
  0xd539d091fe243700U, 0xfb0c1148c43d0744U, 0xf9c0c8f4e204e519U, 0x23fdea170853814fU,
  0x24060269a844f9acU, 0x21001b21cdabec99U, 0xab7dcabf348433fU, 0x17d0313cb2121023U,
  0x3410022c5bb2100cU, 0xa80353f8ef0759c2U, 0xd2222cb0df2e51afU, 0xd9cf0ae654043404U,
  0x279da1ee15a43b03U, 0xde29fd7fe3f04542U, 0x12ea057c0be2d8b8U, 0xc2c50f2b0561229fU,
  0xefdef14f4f13f08U, 0x13d11256e30bf719U, 0xc305c21efe1ef5c3U, 0x2be8c37f30e90ae1U,
  0x3ae629fe8711fd49U, 0xcb191402e4b83c0fU, 0x2f1ced03fe15effbU, 0xfa14d803ffe3067fU,
  0xbfde8d31bfef40aU, 0x18c60bf307011204U, 0xf1e8eee8041c06feU, 0xec2fd7f8fddcfd16U,
  0xebea27f5d20217f7U, 0xe7f7d2d3fe0b0dadU, 0xc71aeb0de2d6ccd3U, 0xc311d2e54e2b27fdU,
  0x2e300b2bc72b3ad7U, 0xbfd950581de10d23U, 0x2ac5d8e944b90638U, 0xadd4bbb14eacef4U,
  0xd981434c2696d538U, 0xb384d841da29a12cU, 0xe71b81de3cbbfae7U, 0xf734d3fe10281c02U,
  0x805e11ffff5bb18U, 0xed14dae6d8e6fae2U, 0x4e202cb07223532U, 0x13e004fe181013f3U,
  0xe417fddbcfd1182eU, 0xf9f41dcc2f2ffce0U, 0xacb5c716beed3b52U, 0x9ef9cd00b7b833f4U,
  0xc7fee20d125f270eU, 0xfad838e38265d6edU, 0xfe1eec613cf3dedfU, 0xdc043346eed5221cU,
  0x4e25300838163ce0U, 0xa5daf6217f60ebeeU, 0x1ff3d0007477bbd6U, 0x2b4803953726e619U,
  0xd0c9f5d91b1a8bdaU, 0x25de46c3e5d93831U, 0x1626f6c3d3d93b14U, 0xba81ecfb26c3e6e1U,
  0xee5af9f20e24e021U, 0x24d7b8b507f5cebfU, 0xd6ed84f3dce815c1U, 0xc6d4b97d9dc4c4d7U,
  0xe9f1eab1251ebc02U, 0xeb1aadd87bf0920eU, 0xfef808d860f6262cU, 0x70347002d1b3de20U,
  0xaad0fcbfb0fed401U, 0x7cdf812916f8cafaU, 0xf7feaaf3ee366d8U, 0x22205a00200d0714U,
  0x44ed280708dc1e28U, 0xe3ebb4d7ea1f0133U, 0xd326af0b2fc5ef3aU, 0x541bc9f0c7fbc6dfU,
  0xbcd3a7f316e64733U, 0x2125271be73da1c6U, 0xf2dfd8c2a5454be4U, 0x1cb0d03da708ffb1U,
  0x27ad31ef1df1127fU, 0x5d42f79b4f2d33baU, 0xaca922dc081498cbU, 0x1fe929d275c255d7U,
  0xe204b04f04baa39cU, 0x628f3ed1bde000bU, 0x21d00aeddff8fb09U, 0xd71df3fbfa79060eU,
  0xf616fd1ce8f5e3d3U, 0xfe3cfd81100ff4cdU, 0xd6271bce04f9f839U, 0x12f3c41264c1e612U,
  0x13f2311c190c0a27U, 0xe3c447f313e22bffU, 0x524eeece9f1e6dcU, 0xfcd606fefafed313U,
  0x7d8c7f3dfd937fcU, 0xa0fe5ed15021fecU, 0x452609fbfd7f1ea9U, 0xec341607c0283dfbU,
  0xd0edc4d40bd9fc1bU, 0xa10170edc0b39eeU, 0x1d26ede52705bc10U, 0xd6f21adcabf208edU,
  0x111c28e8ffd3231aU, 0x8145508e31d201eU, 0xfecd5f00711def6U, 0x1fe8002636f8fe81U,
  0x15dbd300a8ce410cU, 0x4d9f842d733c7edU, 0x132b0df20fa82627U, 0xf408be1915bda3e9U,
  0x42de06e210e4f5f0U, 0x90f9130f2dda24f4U, 0xed09d30e2bf8f2d0U, 0x161bfe0c07d13e7fU,
  0x220809ec0011b5f4U, 0xfafdf3cbc02afae7U, 0xebfa02ff2dc0e841U, 0x3b17c1f99124c428U,
  0x15cd07d41a33eeebU, 0x23f721f8f0f126fbU, 0xefc2941f1ee5221dU, 0x1cf3fc61a428e0U,
  0x3dfc7f38f710f20dU, 0x5b0bc2d90fdae1f7U, 0x18fff43529b709f1U, 0x24141b0008fbee31U,
  0xff1ea6d6818dfd01U, 0x55ba2f2aecc93518U, 0xb7c109ea43f9e955U, 0xd9c3231c21d54aedU,
  0xbb060f342be6aae2U, 0xe2ec032308d8c20fU, 0xe632ec811420130fU, 0x1cd152ec040f2306U,
  0x1b6b00fe0917133dU, 0xf1ecd18c2f5caecU, 0xf0f419b1df2dd3b5U, 0x180517f0e5dce115U,
  0x2cd51615ee36f2e9U, 0xf752033703b4fdbaU, 0x43f0c0de2cbfccd2U, 0xe1e4f5e62d2c160bU,
  0x2e4d0af7e8f409d5U, 0x112500d6e3771b32U, 0xd0b5160b00d5cb2bU, 0x4097325f4f81bbdU,
  0xdff3ec09e436fdf3U, 0xbbe4230c6bce7fd7U, 0x846e371d1ff49dc4U, 0x4d1bd6eb1ec6d7e1U,
  0xd6e738f32ad8580cU, 0x78edf97c1281310fU, 0x8f606daf11b03fdU, 0x63ebda06d1ebb92eU,
  0x5e34e739f083421dU, 0x37303786ca1bebfbU, 0x37fa4cebc1173370U, 0x3e2509d308ee9f27U,
  0x35c63188f020d2f6U, 0xaeb44134a73c63fbU, 0x5010ca2130c7fdcU, 0x2d320af6fad52238U,
  0xf22a0ce7f0521a21U, 0x12450fa62d5bf279U, 0xdc2e25062ff45721U, 0xe2b9f700ff38dbdbU,
  0xcd59de402560ed6U, 0xef96203347f449ebU, 0xdfd51d5323110d0bU, 0x443117bce8b33f6aU,
  0x185b240134ed7f3fU, 0xffe7dad5133102d3U, 0xcf354b3cd4fe14eaU, 0xe90306ddc43ddad8U,
  0xf42be0f5c2de59caU, 0xbefa0bf7f904ebe3U, 0xdd7fe70b65bb2e15U, 0xe71c5a1f3738fdc9U,
  0x7e5ffaf531edeb0dU, 0xf4c73ff5ffdceb08U, 0x110000001aU, 0x900000001U,
  0xfffffff1ffffffe8U, 0x4ffffffbdU, 0xffffffeaffffffe8U, 0xfffffff00000000fU,
  0x30000002dU, 0xffffffa500000060U, 0x1100000015U, 0x3dfffffffaU,
  0x39ffffffd9U, 0x1d00000021U, 0xffffffe8fffffff9U, 0xffffffe3ffffffeaU,
  0x3600000021U, 0xffffffb30000005aU, 0x2600000020U, 0x3f0000001fU,
  0x1c00000008U, 0xfffffffa0000002cU, 0xffffffecfffffff1U, 0xfffffff80000001bU,
  0xfffffffd00000007U, 0xfffffff400000001U, 0xffffffb700000030U, 0xffffffbc00000016U,
  0xffffffc900000005U, 0x3200000009U, 0x2f00000024U, 0xffffffaaffffffcfU,
  0x6c00000011U, 0x3a00000058U, 0x40fb0336e3391ae6U, 0xeb2cec09373e14f6U,
  0xf3e3022f1cca2fd5U, 0xf710d4037fcb2df8U, 0x314da1ed72ad24fU, 0xaebddb514e0f1e2U,
  0x81dfd42f022e2105U, 0xcc00d1cad828fa04U, 0x390621200b5e334fU, 0x522ed81a1c2b2a70U,
  0x3ac54b02d72f4029U, 0x81411d212073d40bU, 0x384fa22653cf1b2cU, 0xb9dddcfe3028ad7fU,
  0x32b5c4712333bee6U, 0x59fd3f254acd2edbU, 0xea7feee1ecfc71f2U, 0x305142d54cd03155U,
  0xbaed08d3011cff4fU, 0x3c0cd5eecb493842U, 0xe2152515052de6fdU, 0xe4e919dfb0eaf3fbU,
  0xf4ed1104fae9dd17U, 0xf81350ad3c729d1U, 0xad1039eeee401fdU, 0x66efe4151c3af0e8U,
  0xf832bcdded0e0540U, 0xf13ece10fb355781U, 0x22f3fccedfdde521U, 0xeaf17fe0f422bb16U,
  0xf9f40343b9292840U, 0xa834d7e4fa35133eU, 0x46ba9cf49f8981cfU, 0x3e04db94f2c5b70fU,
  0xf4e403dc8e4ac89dU, 0xfbe6dafd10f2dbbcU, 0xf54993f724c5f1e0U, 0xebda26e73dfed1e2U,
  0x81b4dd21a8042dafU, 0x9a5c2b85ac1cb4f5U, 0x2aeddd1ce3b9b24fU, 0xc53490d6d0f4dddcU,
  0x8b438b2f1dae9d10U, 0xd8a2e200d20b2581U, 0xe5131dcf2deaf2d0U, 0xecf66543e2daece6U,
  0x1adefe07bbfbe981U, 0x2d161e4b03dfac31U, 0xdc14d088fe81c5dcU, 0x132bfa0112d7e9b2U,
  0xcdcc0fe6ca72d2ceU, 0xd94d65290b1fc14cU, 0x70f43dc1d0bf0fbU, 0x327120f0605f52eU,
  0x157e010731e73ac8U, 0x7f17eb1e2df6c7eeU, 0xebc919f7c5f7ebd9U, 0xcafcfbeef9e51401U,
  0x6eb27f0c7edb8b1U, 0xf1bd13201981f724U, 0xdd6bf53b21cf63adU, 0x81240c456c5c2dbdU,
  0x40c1a0ca6eca0fafU, 0x47e509b51a850126U, 0xe8e90404b2d197edU, 0xc5a6d5d2cab20c2eU,
  0xc50881cb14c18dffU, 0x32e41152fdda54f0U, 0x4230fc46ece3efe5U, 0xdf38c1f2f3ef7fe4U,
  0x18594ccc0215e63bU, 0x10b6301a0d96bdbaU, 0x12c34a1de57f77aaU, 0xc88d2d4d63f2e31bU,
  0x447e32fb180bdb09U, 0x8e6edb1e25e70feaU, 0x2106cf091d81fcf1U, 0x1221e7ff170d17f6U,
  0xfc2acc43ea2daf07U, 0xa1d400612f81be8U, 0x1a1b422381e40eccU, 0x89c10855f5876527U,
  0xe3663a2f0c1d20bfU, 0x70165c423b81ca47U, 0x3f9fc38e926f835U, 0xa9f32681c8f70326U,
  0xae0be2456809e111U, 0xe2350fd2d61e524cU, 0xc60ee2c7fe816311U, 0xaf164fccc0c4a215U,
  0x2ef6bdf5eda80a3eU, 0x41c911edc78fe114U, 0xefcf320281c833cbU, 0xd329e325bd0b31f2U,
  0x1929d3feb90ddfd1U, 0xfd5bf9e4ec5c4353U, 0x3e2e09290a04ddU, 0x1ea0c7f13154d14U,
  0x301932c201e7d924U, 0x81b4422e5f7a6faU, 0xc0d1d401babf33U, 0x65dd2cd4cff6e1d1U,
  0xa6cd81230102c631U, 0xe90546f329f24c3cU, 0xacaff6160e0505a7U, 0x5507e32bcae8c5beU,
  0xc6fb812ff7f108e1U, 0x30d221d0b2618e1U, 0xd0eefde0170000d2U, 0x34c2e3b32abb24f0U,
  0x819eaae63af4cc04U, 0xe01be129d802e7fbU, 0xf8e5d8f1e8cd1e33U, 0xd3185634fe08d6faU,
  0xfcf2ef18dc577fe3U, 0x3ce02a1520cb17e3U, 0x43fd8b140ec8fe7fU, 0xcdf81ccee3cffe09U,
  0xfc06c55ff300f0e2U, 0x481d5223ce95c695U, 0xf2d815effae0f115U, 0x81e3160204f6f719U,
  0xff0becf61104cc0cU, 0xfbe2ded5f6edf342U, 0x91f3bae92bdff9U, 0xf441fb4acbfbfaf0U,
  0xf2e6ef1bfec63deeU, 0xd6dc4b2d243a7f1cU, 0x32cc4b21cd60fdefU, 0xec03c76f7f60b80fU,
  0xf25b6a3d3be4c035U, 0xec170fe70ad812edU, 0x1b7f9f51faa810dU, 0xe2ebfef512e4ecedU,
  0xe8f9ccfb9f012ce5U, 0xdbd427f9f155153aU, 0xf8818ed7ddadee09U, 0xd1b8ec15960a424dU,
  0x973a980ea803dedaU, 0xe18ba2328496dc5U, 0xf2faf81633bcd603U, 0x2efeb5c8fcf56ad7U,
  0x8859080704f881d9U, 0x6f70423cad1e28fU, 0xbedadcbffb30f1bU, 0x4616101bdaab2011U,
  0xe24ad40ed326cb27U, 0x1d43ec150f7f1adeU, 0x3fddd3d6fbd9d75fU, 0x3390da2801d320d1U,
  0x2021ba1a39300027U, 0xb97f0c12bd2e3d06U, 0x630e93b07f7892bU, 0x28cb81e7d5ede5d3U,
  0xd5b7b85a19f1e714U, 0xfc0b68ce4144e4a4U, 0x1e06ddc009e2e423U, 0x354e0c4c13c5130fU,
  0x1552f206e333020dU, 0xe67f582c286e14dbU, 0xaf84d8d6a7020204U, 0xe336c7dafff4c481U,
  0xd4f708d608c9dcb9U, 0xd9e8725b1bc042d4U, 0xf38a0be9d0f9812aU, 0x3aede5d7fbef30c6U,
  0xb6f72452dbe4d0f9U, 0x1c2e562c632022feU, 0xeebdacd506b22754U, 0x18ea1e4105f9f0b7U,
  0x9df48fed7d02d8f7U, 0x71a653728811cc8U, 0xc6a634dec31dc63fU, 0xe3b261adefbdd401U,
  0x11f1f422ba1359d5U, 0xc75afd0ff3caf57fU, 0x29776425a2aaeeeU, 0x1c0b22cf61ab184bU,
  0x11707ffce13bd6f3U, 0x9202e3f406e59013U, 0x41530432ed510ff9U, 0xc5f115f9d323d07fU,
  0x5a04f5c0e4e50437U, 0xd0b6c8cee6f60925U, 0xad1a517ddc602faU, 0xf07d7e5ea45adcfU,
  0xf30205cde72de5U, 0x12cf071ef2fb1381U, 0x2922ba28f3a9d268U, 0x1fc50ffa81edc28eU,
  0xe4bc17f5e4133716U, 0x9a9af50abad808c9U, 0x217f0c0f1f362b39U, 0xb8e83d0f32cf0615U,
  0xce372bca14e2241bU, 0xdc3ebb1bfd6d529U, 0x13f3ded4bc81f426U, 0xf70ee0ede82c1501U,
  0xec33abe2acdcd0f7U, 0x3cf828441ceb6aeeU, 0xe90eb28e37bbf724U, 0xeaccf9f40acc81feU,
  0xb6f097d8ccbdeedfU, 0x24f51d6efde38f8bU, 0x9b05cdbef1d9d6f7U, 0x5441e0834efd596U,
  0xde1eaa53d803c1d5U, 0xe61f7f0111361f0dU, 0xcaed052712df99edU, 0x4fff6d6c9d600ffU,
  0xbd1fd40be7e93acbU, 0xf9fc7f204f19ccfcU, 0x295c8d2e9ee8133U, 0xa9f2d8e132ebfb0fU,
  0x357b21bc5e5a300U, 0xc3fffcebdbad28cdU, 0xfd59c72ff01808cbU, 0x3244bd579b142870U,
  0x8c82bd8791c8b71U, 0x75a66ea753d6811cU, 0xd456ea13de024b62U, 0x3406477f1441e0d0U,
  0x32b81fbc14fd40deU, 0xf7e63a480ad5da10U, 0x26dbf02f4f32227aU, 0xcfd7e9ffdfe404bdU,
  0xa2e8140d402d39c5U, 0xcd0fd52f81f96dafU, 0x21f7a88430c106f3U, 0x2b1ebc132426f8d7U,
  0x290f95315507811dU, 0xd1470d3225e806b8U, 0xf229a9c69b9a81ffU, 0xa31dbfd62fddedd3U,
  0x9904e8f0cdf2cebdU, 0xe9e30748c38976ebU, 0xf103f810b5d0d0d8U, 0x236881c2ec0403f7U,
  0xe8e0ed36faddb71bU, 0x7d4402d29dff2bbU, 0xb5c6a4e86ff2e9dcU, 0xf62c900382c7178fU,
  0x3eff29a4e2c4e3e4U, 0x31ed7f77e1e59af4U, 0xb224e4dbe0140bd8U, 0xd70c3103050df5faU,
  0xe4fdd03d81134912U, 0x8620ee11d470d654U, 0xfde31af61220149aU, 0xd53bbff8f038c81eU,
  0x7fc14d02041cf6ceU, 0x26e20d226213dd46U, 0x98c3d3d4060c8128U, 0xdfadf0fba2acca0eU,
  0x8d4daece1ec2791U, 0xf1d4eb3910e5169aU, 0x1affffffdbU, 0xffffffaaffffffc3U,
  0xffffffcaffffff5aU, 0xffffffdefffffff2U, 0x70000001dU, 0xffffffe300000036U,
  0xffffff8600000010U, 0xffffff950000000eU, 0xffffffdcffffffbfU, 0x11ffffffb0U,
  0xffffffddffffff32U, 0xffffffd5ffffffd4U, 0xfffffffdffffffd8U, 0xffffffeeffffffe2U,
  0x4fffffffb3U, 0xffffffe5ffffffe7U, 0x19fffffff3U, 0x35ffffffffU,
  0xffffffc3fffffff8U, 0xffffffe800000009U, 0xffffffd2fffffff3U, 0xffffffca00000011U,
  0xffffffaeffffffdaU, 0x90000001cU, 0xfffffff6ffffffdaU, 0xffffffa300000013U,
  0x1fffffffe4U, 0xffffffd1ffffffbeU, 0x20ffffffbeU, 0x9ffffffc6U,
  0xbffffffc0U, 0x5bffffffcdU, 0xfffc452d1c3501b2U, 0x81157cc60c8f8ea1U,
  0x1c36f37fb04479e9U, 0x7f0257cf4d4621e4U, 0x4920bf670b1b97baU, 0x878e718f74c9f4e3U,
  0xc0b8447f678cff36U, 0xe5817f89c46f2181U, 0xc84201f5077f0cc4U, 0xb4d05b8115818181U,
  0xd308136db2f7f0dU, 0x4f0007bf3a1e43c9U, 0x241f817f0f1ac1b4U, 0x81817ff07f81dc07U,
  0xfd9a76327f871541U, 0x819062d7bf36118cU, 0x12fa0736df3ffad8U, 0x8d173cbf3a1209d6U,
  0xf84dea20b341def5U, 0x760fd8e232a72f17U, 0xfef6b443e6f8bef0U, 0xa31205813bc2d5c1U,
  0xf4b42c4548d4ed23U, 0x9acb4426d30214dfU, 0x3536a1d5d832e7feU, 0xa7a7fc5c836a98bU,
  0x4755cf75819c56f1U, 0x45d40588277f772cU, 0xad1e152837c1d579U, 0xf5d6fff930fed44eU,
  0x811d580e1a81141fU, 0xe28ffa88b1aff89dU, 0xfb7ff0d7f746e6f3U, 0x553868aaecf49385U,
  0xf733b228c5eb6743U, 0x6dc4f181f8277f47U, 0xbd46d43c149a0056U, 0x15e5eb3238f2d744U,
  0xbc1e77c21fb14a16U, 0xb9d9f81f81cccaa1U, 0x3d36edcd0333f622U, 0xe72a4495052cefdeU,
  0xfb43a5419311f7dcU, 0x3118819333aa697fU, 0xf2e3da3a42e9bc6eU, 0xd02cc1b501f3d6d8U,
  0xbcfa450f03c8e3d2U, 0x85ee3b2cd57ffaf5U, 0x55f581b4e8e8a219U, 0xb7f03d9812d35f6U,
  0x7f7fb8e1af814c8aU, 0xc1badd09733f0f2aU, 0x885102227fb68181U, 0x4dfad8530155817fU,
  0xe87911958c2c7fbbU, 0x17d78634f7b59a04U, 0x722ed3817fd4817fU, 0x396d28cbb00c0c32U,
  0x4671a2f9f3a025b8U, 0x1381c72e7f132959U, 0x817fc4317281bac8U, 0x52f0bb633a10bc56U,
  0x12185f958a1e7acbU, 0xf2d0b77fd2d58130U, 0x7f0ca0065bb9db7dU, 0xff5efdb9bcdce271U,
  0x72d98d6f2ccd181U, 0x89e497dc55ce0e3eU, 0xaeeb11f041e4c6ceU, 0x194ae113dd42d021U,
  0xec7f7f99b520fc81U, 0xbcde2f7ff4619ce1U, 0x0U, 0x0U,
  0x0U, 0x0U, 0x0U, 0x0U,
  0x0U, 0x0U, 0x0U, 0x0U,
  0x0U, 0x0U, 0x0U, 0x0U,
  0x0U, 0x0U, 0x0U, 0x0U,
  0x0U, 0x0U, 0x0U, 0x0U,
  0x0U, 0x0U, 0x0U, 0x0U,
  0x0U, 0x0U, 0x0U, 0x0U,
  0x0U, 0x0U, 0x22f1c7ec32ffdb23U, 0x3fddd43fb63af92dU,
  0xe9f8d6d7ac00d81bU, 0x38e67ff8fa4217d3U, 0x120939160f1015dbU, 0xe0dde9e8e3213451U,
  0x3519d9edb01725dfU, 0xf353688e8fe3cb8U, 0xd37fc7efe6debcf3U, 0x2af738f2fb081105U,
  0xedcf4a0a250414f1U, 0x607fe2f1904eed7U, 0xf20c4e905e80927U, 0xf404e4f8bf095903U,
  0xe6b61c780c0d1f14U, 0xf163d4f40798eca7U, 0x19d4f06e9537b3eaU, 0xfdfc1cd5d1e3161fU,
  0xadfbbdfef157b9dfU, 0x2423706eb20ea06U, 0xcb61270a18c1eb21U, 0x3fe2c8c20a0137e8U,
  0x26982d9cd5e301c7U, 0xd1ffde980ce37f1cU, 0x24cc27ed2a16e9dcU, 0x420f2ea1b3aee0dU,
  0xfa03e1efd3100ab3U, 0x3ece00ebd1ae04f6U, 0x5781c4afece8da3aU, 0xe804fc4c1d0119eeU,
  0x163babd4f7f419f7U, 0x3dfc2bcd1d1130e2U, 0x9482dbe1836bfe5U, 0xdc20e70cbf105829U,
  0x7ec13cdbc074d2cU, 0x7f04a4baf7e9dc52U, 0x9d1d03ff0405ef52U, 0x3c044b1df91025bcU,
  0xe7d10529041e730dU, 0x48b3dd13942603dbU, 0xc100d231f02032f4U, 0xd25130fc7d248f9U,
  0xa4fd12f802112ef7U, 0x50d350fe43af809U, 0x901de25357f1920U, 0xc42722e9fc180122U,
  0x102fcf0f9b90821U, 0x171146f5f8b102d3U, 0xebb643d41b0f14e1U, 0x5a1cfca1b7fadac4U,
  0xf3ead954e721ee0bU, 0xcbfe813233fa12f0U, 0x2096dc1ef02b0ed5U, 0xe6e254905b0036f1U,
  0xccda8df1fc44eebdU, 0x5c1bedeb4a16c4daU, 0x400ecbe27bc91181U, 0x333ad3f9fcfbc1faU,
  0xe434da0cb8101bbfU, 0xf501ade9641232f2U, 0x3af03323220c4de1U, 0x1bc6de7d06bb9dc0U,
  0x17e9b00423ed12e3U, 0xf8e3463cdaa8c61fU, 0xe1ed4f36eedbe005U, 0xe60118f900111af4U,
  0xaa81b4fe013987efU, 0xf8fb33231647c9f5U, 0xe109e8c91c0bd3f9U, 0x2911fed72315f8c1U,
  0x23f2bf1528edd3dcU, 0x10dd410135e90bfaU, 0x3fc9ea000000f733U, 0xf30fea27f51b1209U,
  0xcbe4c6462b12fdfcU, 0xe9c127f8e5eefc06U, 0x30e13dfbf8fd23d4U, 0x3aec2437373ce4f7U,
  0x1ed88116be2aed0dU, 0x114d7dfede21300U, 0xe3d05caebd1e701U, 0x2ec8e926e71cca01U,
  0xed0d3f91b57bd19U, 0x2e28d22d773b7fcfU, 0xab589f30392b8c7dU, 0xd2e20ae6533bdbb9U,
  0xba0826e8eb152206U, 0xdf42f907c22ef0bfU, 0xe822dac601fe0155U, 0xf2001801d1edf8bdU,
  0xe0e91af0ee530d23U, 0xf5ee47e4a9cc0dddU, 0xe3a7c1d402ffeab4U, 0xa9812f3de42c12a0U,
  0xc9bf1adb0ff60dfcU, 0xce0ef13ef2ea8fafU, 0xd10d0865f103d43dU, 0x312a020908e128faU,
  0xd7f33828ae2d10cdU, 0xea3edafde4aaa518U, 0x1c011bfa1c10fa0eU, 0x42a801e817fe2513U,
  0x220b812e21b02a21U, 0xdde520dcd83f02daU, 0x4f523ed1220e4d5U, 0xca06d035da0542f9U,
  0xafc15de101ccb05U, 0x4c1dd2d60dd537ceU, 0x104a2d2740f8b7e8U, 0xf4f7460d81fe1a06U,
  0xbed00365f2bf0f5U, 0xc9f9cd40edfcf138U, 0xd117d0b0cc0a4800U, 0xe120f834e8cce908U,
  0xf9f206e80ff6d645U, 0xd221e118f40d0d02U, 0xe5f5f03329d914f0U, 0x4c33e2141bf01d22U,
  0x28ce4270813f41ebU, 0xcc05d7f4f7bee311U, 0xcaedeb12c3e6d8bcU, 0x1e4bff495b259f60U,
  0xf6eeacb0f61ca21bU, 0xa16e0ce9181b03e4U, 0x5a17d9c3d5b71d19U, 0xfd0470f1bad5cb00U,
  0xfb0a2aeee517127fU, 0xe44719d85fc1d5d2U, 0x21aa5a5fdba2321U, 0x6ce117d5401f25b6U,
  0xdb27cc2ae0eed043U, 0x169e26fc4b0553ddU, 0x2a11b4e51ed9e8e0U, 0x1f4647e71fd2de11U,
  0xe2611816141524f9U, 0x2801f3231561813aU, 0xde0f5b6ac0610f0U, 0xc0a241021d8d80bU,
  0xb9bfbc2b4033d107U, 0xa0c6c6ca0ef9d02dU, 0x22128b8eae53106U, 0x2d375122d22744c7U,
  0xf31796eafaddccf1U, 0x629d3d97ff9f120U, 0x121e37c0faefcbfcU, 0xfe091c9d380f0d3dU,
  0x20f7ddf0a0460fbeU, 0x21ffd7d6d2060811U, 0xe2f5d10f3ddceb17U, 0x20033fec280305f8U,
  0x1bf42e52fe027f0bU, 0x1b2eec0ef33b26f1U, 0x2df7fd200df1a6dbU, 0xf534150d0717d210U,
  0xf1f1180a19001d81U, 0x11c71ac964e8b3f7U, 0xfe14c8f60cddfe08U, 0xf4ff291a06121805U,
  0x34f9e0d2f9fdcdf7U, 0xe238f5fc1be4fcc2U, 0x901e4f19e43a0906U, 0x121bf8d21024fbd8U,
  0x46dbd9e300bb0d0eU, 0xeec30ed61f03c7d8U, 0x14f3e622e281e9ecU, 0x33fb00252bdf1520U,
  0x10df1df8e217ae34U, 0xeedfd703f7ed0020U, 0x402d29bee3e5f41bU, 0xbdf648d3de941967U,
  0x1d392feb220549e8U, 0x4c3d5d806ef0aeeU, 0xe2de0f1863fcf312U, 0x43182b23811ee029U,
  0x71400ccfdf2d8f0U, 0x3be5d9d7d3f40bcbU, 0xe8aa2d1c03146748U, 0x2c271a2bd521d99dU,
  0xcbe1f92719360ffbU, 0x4dbee0b81cb0a18U, 0x2bcfeaeadd46b5cdU, 0x1405010ae0f4bf37U,
  0x1a9063f82afb032bU, 0xcf10fcafce08f318U, 0x181bc9678a33d027U, 0xdfa11e4c04a7816U,
  0xdfbd260039a52bcfU, 0x48e42ae561d9d801U, 0xf92602b643083e12U, 0x14bfdc77edb9e085U,
  0xa7e5e6c926f5f181U, 0xdfedefc5b82269c7U, 0x37ac2a012eee0614U, 0x944ece7661d02eeU,
  0xb30c17bb1dc6f2d6U, 0xef30e965c268fdddU, 0x260ef9181ab045fbU, 0xc810ee13110a3881U,
  0x1a39f0d24cfaef1dU, 0xc4b692149d7f7d1U, 0x25ba2d2724f9f80dU, 0x696830491225dfccU,
  0x520f0086010875d5U, 0x1013d27822db1401U, 0xce5677192d2881e8U, 0xe1a2224e4182855U,
  0xea0d370e2814cf26U, 0xe186e30d2f86f81bU, 0x1cdedd0afc281cf2U, 0x4b2681bffb241d2dU,
  0x3b9c9b9d7b5f1b4U, 0xdecbe427f115bf1fU, 0x98da24f0c9d710f4U, 0xf426a60de9c31ffeU,
  0xf50e0001c8aacf1cU, 0xea1ffdeb27ed21fcU, 0x7f2e0408fed4b906U, 0x10f3176202d0b0caU,
  0x67c0be1e6f8e9fcU, 0xf5b807fbf43846d4U, 0x1f3327e2e005c55dU, 0xdd0a2fe9f72b06dbU,
  0xcbdc0a0ba151ad2U, 0x10f200f7d3eedd03U, 0x28e8e9250c2d030eU, 0xe0edc81f2015e2a0U,
  0xeb2a132ee63001d0U, 0xf3c3fbd747f821e7U, 0x3ffb7ba13b0fbd0U, 0x2bec14f2eb81a3ecU,
  0x18ea3bc11107e0e6U, 0x1ff7bcf0ecde0451U, 0x4481f10612e4df1fU, 0xd1d5d23cf9223e2bU,
  0xabf7ffc5e7093417U, 0xcdbf35ebe2badcd7U, 0xf36132112139fd2U, 0x3eea713162cefa6U,
  0x1314fbc14328dff0U, 0x43f5afd811d63200U, 0x2dceba0cf0f7dcddU, 0xfbd0e715fa2081e5U,
  0x4535c92045cff70aU, 0xfdcef1106d9106eaU, 0x4226330b022aa108U, 0x5f332f3460cfc01U,
  0x4b0ceff5ab68d8dbU, 0xf9090f2231b80c20U, 0xe6eff1d94cb2e7f9U, 0x49dfd7fc1809350fU,
  0x83a6dd9927e3c909U, 0x5013528c9f332fbU, 0xe13d14158166ee18U, 0xdaadecececa6a9a0U,
  0x4218ac6119e1f351U, 0x3dc2f3b6b7a20940U, 0xf9f1f8ffe3e0dc1eU, 0x8f3edd909031508U,
  0xe8e2fd8f0607dd2dU, 0xd10256b0efcddff7U, 0xc1100d20807ede1U, 0xe039e916c2cb11c2U,
  0x5625f515b3ddecc0U, 0x3cd7f2519155032U, 0x27e12b0413d9d6fbU, 0xd2c92f2718160802U,
  0xfffc2ef760e32fedU, 0x5ba7f40a2beec6ddU, 0x18fdd17f11fa1aceU, 0x40cc2a00e9eda8daU,
  0xfe064a0603f9c901U, 0xcd21de0f220dc908U, 0xc4a8e5ff041b602cU, 0x20e681b72beb2416U,
  0xee0ce912120228bcU, 0xe94d1514de31d5ffU, 0x263121dff1f32debU, 0x352c4cb3a20230bU,
  0xd53adb2ff5aabbf6U, 0xc10ddbd01f94334U, 0xce46f3e7dbe90e33U, 0xfdeef0061758ff2bU,
  0xf6f150f3e5be4ceeU, 0x49e2db4df193fd59U, 0x965d8e11e11ff81U, 0x521f082fd5301c1fU,
  0x21260800e9fabdddU, 0x3ff921b4df2230eaU, 0x3427124fa5eba007U, 0x8422ce1d11e3bd3U,
  0x9a6491015fde9c9U, 0xd621dc250dd1814fU, 0xdaa5d6d6a6602e22U, 0x2bf8f92ce8ed26f3U,
  0x1be612ce08cfc81eU, 0xc0aaf0063c170df0U, 0x23f5c1dbbf19b816U, 0xd4fff2cbeee1483dU,
  0x292da1e0c105d7ecU, 0xc329ef82d68e3dcU, 0xd42d742926051bcbU, 0x3275bcb91b69c3edU,
  0xef31f9ede2c8e499U, 0x1afab7d337228133U, 0xf7ab0225d5a11a22U, 0xeb5d2fda53218107U,
  0xa4947cfd2d2dd10U, 0xece832200f4c081bU, 0x315100807dfcf1cU, 0xb2ed1312f313f726U,
  0xe3644bf70af8ede2U, 0x34041707221db918U, 0xf8ed70ff40ad204aU, 0xfe52f7140e2ef145U,
  0x7f17372514f7ef23U, 0x124f63422d5fc17U, 0xe641de130d08173cU, 0x637f9fff6d9126cU,
  0xd6dae4ea0f0e0601U, 0xd5d8c210ea6d01U, 0xeaefe8082f16f7d2U, 0xcb04ee387ff2271dU,
  0xbca000909021df9U, 0xbffd10ca0df2b9e5U, 0x1209e2ddeee2eecaU, 0x15e6c1de0c140025U,
  0x42fbddf1fa18d80cU, 0x22650affe3dd09efU, 0x1b67ed5b3a54065dU, 0xb0b91a28dafcdcc9U,
  0xfaf7fcd5dd27b909U, 0xc1d9d20242c5e99fU, 0x91e0d0a17f10631cU, 0x13f9b7b9ef24df6eU,
  0x390417d90725bc90U, 0xcbb170e0b05ea02U, 0x36c9e0c5cfcbc227U, 0xbdeb3515005ed74aU,
  0xe019ea395c4e0f13U, 0x291632bc36160cd4U, 0x9f0ef5229cd2a39U, 0x5cfefb8110fe07e6U,
  0xc9e30ae5d6e21e27U, 0xc056cc8b08062628U, 0x1f8f2db49125750U, 0x111a01c8f60a01ffU,
  0xc3021ff7d43b2c0bU, 0x91621441e1df7afU, 0xe23ce095a40c4f3U, 0xf6eda6f1431be75aU,
  0x18130af31ec822daU, 0xe79a7fd404b208ebU, 0x26da32f115d3dc2fU, 0x71fcb008d02bc4deU,
  0x7e30d0fc0d4a2805U, 0x47f1aad5cfdc7f2fU, 0x3d251f461601c758U, 0xd107f0c21e2e09f4U,
  0xc19bba04c5f7384dU, 0x25d4efec0ba8ed0cU, 0x43e8e03f14d3123cU, 0x39012ed805120a09U,
  0x3616c704f20100f0U, 0x41622f50afa1ce1U, 0xf1539d1f7ea0709U, 0xf7f3df2f819f50aU,
  0xe9f8fd0f08fd26f6U, 0xe539e6f6e21aedd2U, 0x300cd9cf06db253cU, 0x10ea09bb1f6afd30U,
  0x8e7cd00c9dd1cb4U, 0xdf1d0b4fe97ff6dcU, 0xcc1e113406f2e809U, 0xf22cb0de0163a29U,
  0x1c12e6f92ae1e9c7U, 0x11e60eee02d40636U, 0xe00cb30a2d174cf3U, 0x1939b8c2dff22d05U,
  0x250600ae03d1e423U, 0x93b0daebe4c219f0U, 0xcdca8dec3936e1f5U, 0x1d4b0b33eb033e7U,
  0xa51f1b3309254781U, 0xab81f277b7904f5U, 0xefbebe10e005eb8eU, 0xdc11e3d4e3a21d5eU,
  0xa4d3d613586f45f7U, 0xff42adf031da500U, 0xdd69441e7edb1ae8U, 0x411ef9cf85b75ddcU,
  0x44f734f011e3b31dU, 0x8119a20deadf22f1U, 0xfb2ae80b0546e3edU, 0x2b2f06fd4eed4421U,
  0x24bae1aee0f6f718U, 0x3b3911c6d21f149cU, 0xbd3cf421db2f90fU, 0x1e80f10f6d04827U,
  0xcb002e3cdb7ffedeU, 0x3134e82027fad4a8U, 0xcb7444b8dc264116U, 0xe35154e4f939b325U,
  0x4ecaa038f63669f0U, 0xfde5ed13cbc3dbf7U, 0xde810ecf520320d0U, 0x32c3433108b35530U,
  0xbddfae08ff3d492bU, 0x399110c6a4f033bbU, 0x33152bb92a1ef8edU, 0xfb323817ddf83be1U,
  0x3245c81a9610271eU, 0x3ef712abfc1a62b0U, 0x53065ef5ba1c322eU, 0xd9f301efb855d911U,
  0xe67ff303b8e6f913U, 0xc61816cbc613ad08U, 0x30ecfefef1acaa6fU, 0x55cf46dc011ef4c8U,
  0xefe0e60bf6384041U, 0xb3dce421ee19d8caU, 0x433022ad90a0862U, 0x3281df3a08da12e5U,
  0x7df0153e4f8f6c9U, 0x2312bbeb1cfbe611U, 0xeffdf2b491de61bU, 0x1c63d50c15155be1U,
  0x1a35120314b03213U, 0xe807f915f7a3fb14U, 0xf4c591b9fc3fe181U, 0x2afef077dedb483bU,
  0xf6059f14570dba00U, 0x18e1530ffa18c1b2U, 0x24caf0f80c49d4e7U, 0xf169cce5b5fb1f3aU,
  0x3a00ef4328044616U, 0xfcf9108302fbfbc6U, 0xf604230ff52825a7U, 0xb141f2f21fecc01U,
  0xf615d17ffb19bcc1U, 0xc3edd1214cb3d399U, 0x55ece6e2f2dcceceU, 0x4ef4a7f2b0bc422U,
  0xd0cccad638e840b3U, 0xe8001ef018f02ae2U, 0x242de1d7f61618U, 0x471f4f0dc8f7f32aU,
  0xe6d3dce3194405e4U, 0x18fbad2027fb10e3U, 0xc0231bab2bdfb9a7U, 0x2aee9612ed23f1c5U,
  0x3107e2161b070dc8U, 0xe9edcaf0e9052104U, 0x24a4a6eb3d220c02U, 0xe7fbb4fdb321fed4U,
  0xfd0c2d4067f4fe1U, 0x5bf0ec0c2d0d541aU, 0xf00710ecec0e141aU, 0xad2231415f6fcf2U,
  0x48cfd0f7e8d527eeU, 0xdaf3192fd217d31cU, 0xdbf8f43a070d0d3bU, 0xff928280724d8ecU,
  0x1bfcd73b2278f4dfU, 0x7f03f6fd122f2706U, 0x8d00f3c1de2e6f4U, 0xf2ef5cf5f2351320U,
  0x1a1f00cfc70513efU, 0x37c2c4e51acd95fcU, 0x2fff127f0401452dU, 0xef231e402cb2b1eU,
  0xd9b1de3526d1dc1fU, 0xd5dff8c0da2019caU, 0x35c6fb2babeacaf2U, 0x1b935aceddf0424U,
  0xe3272333b2dd22e0U, 0xec1de9fc4106d9c9U, 0x2aee2b6930f52f35U, 0x7d0dfb813899b6f9U,
  0x5032aef8f6f6c12cU, 0x484848f8a545dabeU, 0xe91df60a4a7509e7U, 0xef380fcbd27ff770U,
  0xed019785e83aeaa2U, 0x168ee4d1c9fb04f1U, 0x5434dc34249c0db8U, 0x719a4b550058e402U,
  0xb360e40488e24deaU, 0xab0e1f0b579cf317U, 0xd8c759065ee026a4U, 0x3220dc1bd743ff3dU,
  0x422d026ab4f65587U, 0xf81e811076efe0bdU, 0x2f145a0659313bc6U, 0x97072ee8dccf01c1U,
  0x2ef6b8085036fb2eU, 0x3d6cd210bd8a724U, 0xfed6cc13a6f9def3U, 0x281d811c9bf7f3faU,
  0x1ce2f4ef5d4d281bU, 0x1148f249932b0cf8U, 0xeaaf16d33ecbf714U, 0x20fcaef04eba1d23U,
  0xf2b7c8fd0c5742ffU, 0x1321df42cc344a28U, 0x62fc02ebffc600c6U, 0xc8eac1077f30defaU,
  0xd23a23ef0cf8b5ccU, 0x1dba56b1121c2225U, 0x4627fb12ee8d13afU, 0x98bf11ca50fa3cf8U,
  0xc9e5e9a6064ef412U, 0x23f5fcaa1dfeb6f6U, 0xfbfabf02f31625f0U, 0xf1f6c80443c75f19U,
  0xe2e6fdfe1fd6122cU, 0xed202a48012ef3a7U, 0xd1b12effefa5902U, 0xefe90bc643f81315U,
  0x112cced182aacddU, 0x12c14aebc3be3981U, 0xe09b45c05ec30616U, 0xfc49484afb3cec3dU,
  0xdd17bf1fd3b0ec7fU, 0x57ecce030c17ec08U, 0x15c7213a284a0929U, 0x1d4043da290b00daU,
  0xd639cef0cf43cdf3U, 0x45cc1d862b23db06U, 0xff852b06121f18c9U, 0xde0d1cdccf2f2debU,
  0x1b09e10b0426121bU, 0xe3d303ad06ea152dU, 0xe1f6cbf2e300d312U, 0xd5e74bf4d5c80d06U,
  0xf5eef6ab120281f0U, 0x5040afae0f259acU, 0xfcf1a317549dc52dU, 0xbd07f6f84c22ecf7U,
  0xcd7e023793f025a3U, 0xe631d6ed214a1e4aU, 0x12c2599bf1d97327U, 0x151d29269f40ff77U,
  0xb99fd1afdeb58dcU, 0x20bed12281ccf05cU, 0xf10e13bac8b2b7d2U, 0xde20fc027f0e080cU,
  0xef06e936d02c34ccU, 0x6f2200c5f8d94be0U, 0x2b13e912c7dde50bU, 0x1afce12b58befbffU,
  0xce09f2c24c07ce21U, 0x4512c3ea0b084a61U, 0xb555b6323a47d4d3U, 0xe9fb21fe09f0f8ceU,
  0xf3f234efdce5e6d3U, 0x31ec0496d83423cbU, 0x82be3db0cdde6feU, 0x81e6d5f9c2f761d5U,
  0x3ee233c123b11c3U, 0x23ce4f1419f4c2e0U, 0x81985eea32d34b22U, 0xfee2dba21e0c33e2U,
  0x32381ce9d8041566U, 0x32a0c431d199cd8U, 0xd173eb1bd03a2cdeU, 0xba53ef50f0d422cdU,
  0x41581d0546d2c304U, 0x745eff7361bd9dbU, 0xa416fdf0fce514e8U, 0xfb2f185230f4ddeeU,
  0xe132b3bc1a3d17b5U, 0xcd1abb31f71108d6U, 0x3406815b38ca213fU, 0x8f216fae20ef124U,
  0xdc0856a5ec3e351cU, 0x34aa1c1632ecedd9U, 0x13fa25dee8130ef6U, 0xf40a133026221210U,
  0xd9fcfc050736020aU, 0xeaedf62dd4c607dbU, 0xf310e93a21eded7fU, 0x400e26f40520e50aU,
  0x1bede1e1ec3128d1U, 0xe4e309e706d6b300U, 0xe41b0cffdcdefc08U, 0x3071171e1d5ff709U,
  0xedf8fdca0a6848daU, 0x3a79f7f747d90f25U, 0x5c02032d7ffec8f2U, 0xc9e33dfeb9edd4a1U,
  0x1af9d2bef31af220U, 0xe5c534ed40284328U, 0x1011dd03a4e0cd03U, 0x2430b119fab5007fU,
  0xe4f4edc506ede5cdU, 0x6dbd3d600d6ec44U, 0xf20a280202eceec4U, 0x7a01ff1cfac4d2e9U,
  0x3fd3f82faae4dfecU, 0xecf7dce8e8ff1452U, 0xb6ac3256440062f2U, 0x4b1231d4da324bc2U,
  0xbce1a4a144291ed6U, 0xad0dfa0415ecb9bfU, 0xea79b01272e1a937U, 0x9eef0a1d1abf36e1U,
  0xdae0f54f4521ba86U, 0xbd302173181d88fU, 0x1dd3ee1a22e5075eU, 0xf93aec24299d30fcU,
  0x1b1804f440130d65U, 0x38d828dd40a603e8U, 0xfde2ed3e1a13cefdU, 0xf3060fe29233c4daU,
  0x2c26ed15b0f5fafcU, 0x813017f932cfec0fU, 0xcdf112060becc8c7U, 0xc70c080ffe1b2d15U,
  0xfe534241fe8d7f8U, 0x1418dafe07feabd6U, 0xf610effe2481c40aU, 0xecdc1ad3e0f23ccfU,
  0xf1e3fbe8e322d0ebU, 0x90bfde9faea07dcU, 0x41ffd2d21db31615U, 0xb11e160041222dacU,
  0x497f2a19dc34fa02U, 0xe902e119b0eb23cbU, 0x42e2cafe9949d027U, 0xe8d9e8ab52bbed76U,
  0x17e325c3f0313f49U, 0x21efbeddfd17f616U, 0x7f10e3f43b26f5d5U, 0xe39fddf85f0d34c1U,
  0x3b09fcbee332dc1aU, 0xe22829dfbf2cf8d9U, 0xdf3b0252bb90793U, 0xe3e3e20b05c73df8U,
  0x4f2418f553285ca9U, 0xfdeb9afaf8ff453cU, 0x3814291368be0d91U, 0xe4f2543bff84ecccU,
  0x396cdcc40ceb7fd2U, 0xc806c85e15bcc2b0U, 0xdaf8d064e21921d2U, 0xc38816319cc42a0aU,
  0x1b0106e52c29aed3U, 0xd60153f77846d5fdU, 0xd99b031827dbd6d7U, 0x764eef2f89cd3207U,
  0x210dedc4e40840d4U, 0xc340d8e329399323U, 0xcbdd7fd822f145fdU, 0x3020f91423ec1bf1U,
  0xf8d5fe6433cd90e0U, 0xc630534eee8d16c7U, 0x2709eed914b4f823U, 0xfc425ab6fdf3dcdcU,
  0x50030444bbec2d45U, 0x244af3fc7f6b0eceU, 0x81ef612fb2af407U, 0xe9cdddfdee50f509U,
  0x1e13ba1b04d00fc7U, 0x3f6819c608433616U, 0xb24160b8f2edd15U, 0xf4bd171b3d22b1f7U,
  0xf7d7f1163ad405deU, 0x3a4d07ecb5c3fb64U, 0xcd3f164c27c030e7U, 0xef3ff9e3125c5dbcU,
  0xbed8b0cf18efc314U, 0x87fb7fb72eedb13U, 0xdadb73ef69237fd8U, 0xf03c06fede2b1d27U,
  0x3feceebeeb206746U, 0xf03f080ce12abfd5U, 0xd609ebffed32030bU, 0xfeb9e4ebc5f1f74aU,
  0x17080de50513e217U, 0x2ed2f0bfe50eed06U, 0x24f9ebf9d081ed35U, 0x5339e70c48402a16U,
  0xe6d9003d94c162f7U, 0xec19f133dde9f104U, 0xf8f6c90beea4df27U, 0x1d4ec298563e2424U,
  0x3416c697e41f1dU, 0xf2f601aff2e51838U, 0xe0f2a343ed00a1eU, 0x3d270220051efc7fU,
  0xfd908d2cdeb2b94U, 0x3ec8dbb3db73bed1U, 0xf26fe0807b93de2U, 0x1173fc23cbebfd12U,
  0x53cf38071b200a29U, 0x21e4fe17ef062d9bU, 0xd5490f3707fc04fdU, 0xede1e9d1f5e001b4U,
  0xf1d8fc07bffe6740U, 0xee0a2705b7eaf70bU, 0xe8c32deb180ce4ceU, 0xd316d21f81df5519U,
  0x140bbdd8ee0e1403U, 0x3402f017effef2dbU, 0x1b2500ae2107b4a7U, 0xaa1fffd97fbc2ae1U,
  0xf712b91b22d92bdbU, 0x6baf7108f73b1ec5U, 0xd7e51d1fd7d3020eU, 0x7d192309ce740afbU,
  0xd1cae7041faed9dfU, 0xec22d0a71328e42bU, 0xe7d7da4ce421f9bdU, 0xd8271281e80dfb11U,
  0xf6dde90cff24d1f0U, 0xd6f9f4121b01b63dU, 0xf531f817bccbf104U, 0xecda36c25646ec0dU,
  0xf921e10709fbbd03U, 0xef0904c74eba009cU, 0x42bf7f47c820013dU, 0x1801401ececf67e2U,
  0x6cd3fab803072815U, 0xe2e0da158a24bcefU, 0xa41efe300211d8e7U, 0x332dae07dcf5ed39U,
  0x2bb80e1c0cad14eeU, 0xeeedcc2f0f2b0817U, 0x36fbc612143d1d02U, 0xf81a20e7e60dff22U,
  0xca1598c8e2b135c7U, 0xdbdafd12dfc3bb10U, 0x50e11c21360727fdU, 0xc3d32c1c1d350ce2U,
  0xb9baf64ab7ee05edU, 0xe94be6811dfb18a7U, 0xc7c5fbdd0a0e242dU, 0x2214101106ecf9d9U,
  0x17f5161dc92e101aU, 0xdc3ff22721fbfee2U, 0xaa020d397f000408U, 0xf9dceb0c0030eef4U,
  0xe1ed505fbe4ffe6U, 0x11ea10fb210900f2U, 0xcdeb4c10270ae1ebU, 0xfe18f614bc0ae23aU,
  0xea2ffc0206202925U, 0x39b3b9593b20fc0bU, 0xaf02f7b51239ea23U, 0x510ff5dae4ed3645U,
  0xbfdbf33d181ceb81U, 0x2bb60f21a9e9f204U, 0xf82cc71db805f72cU, 0x9bf636e144bd1809U,
  0x31fd81e5bc15cc15U, 0xd11ecdf2ce4b6U, 0xbd2a0de21226c9caU, 0x496006f5030ad6dcU,
  0x45061cf1b6f62a2bU, 0x3c084205ff572bedU, 0x1aee680970819e19U, 0x1fd0d9fdfbd51f04U,
  0x57ec038a06ec74d7U, 0x3037dc1fed341207U, 0x592b35f94d27e0f8U, 0xe5feb5f872cbb1fU,
  0xfd3fd44e7ccf0accU, 0x53eac45c0e373b13U, 0xd7cfced2f603c0caU, 0xf3f7360f46f92e07U,
  0x2939f7b027c5ea15U, 0xfffcc51425aa90c9U, 0xe58109540cd3f92eU, 0xd9e165c333435aebU,
  0xbfd6ba0d3804dd1bU, 0xcbc34d00ff17b1caU, 0xc4391cef317eb20dU, 0x5607cd0234663d13U,
  0xc430edd895f4fcdaU, 0xd0058103ff1520a9U, 0x2c1f93e158f8fd66U, 0x4453aed537505707U,
  0x24a9ec050a1742bcU, 0x230450012d2fe8edU, 0x211f42e3bccf618U, 0xafee3250f30b2a26U,
  0xdd538ff381f36b26U, 0x12eee0f54d90f217U, 0xad64f33a5ce1b550U, 0xc164f60ecc831eaU,
  0x5feddf071e08c4dfU, 0xf2a07fd65e022603U, 0xad80afae8191507U, 0xf8f92c454e1c0102U,
  0xafeee18143ef6feU, 0xde0ef500fee4f6c1U, 0xef8ed18f8f1f8ffU, 0x130029ec107fe710U,
  0x623eae9a94e2d16U, 0xdcfc08d80409e0eaU, 0xe100dc7f05eb20dbU, 0xac06d722360a7eeeU,
  0xf7002717ed150003U, 0xe4feee2afeced8b7U, 0xf2fdf6c33f09d919U, 0xacdd22fecfaf93dU,
  0xe7aed9e21327c029U, 0xee1b0e13d7d017e3U, 0xbd5f1545581d902U, 0x349d461638fa4affU,
  0x2d331750a6f50e14U, 0xbd705e52fc9f840U, 0xcc5f2b24f854df29U, 0x5e24da08e547dd0bU,
  0x29cd9a1842c2b910U, 0x16c6eb1c06a1c122U, 0x27b9e4da1a209529U, 0x4b37bfe137b7f902U,
  0x420a8aadbbe52cf7U, 0xf5d7ddf61356b85fU, 0xfe462c4dd3f682dfU, 0x1e7ff0102a0fed76U,
  0x29f0e5b8f9c52bf8U, 0xd5011cd905cf2081U, 0x34da14d01337c5daU, 0xd7f373bb41c00f8U,
  0x340a1f2562552f27U, 0xf11c202c1d061013U, 0x905ac23d4f7cf31U, 0xfd5fedde5dfcb20U,
  0xebc00ecd19110119U, 0x6fded1242bd36fdU, 0xfff1d5d93ae21481U, 0xeb27f3eec518ea60U,
  0xcedfce3bd7ebe4e0U, 0xf22cdc1fcbe813faU, 0x12f9defe233c57a7U, 0x300251c04f3ac28U,
  0xd48fce73615f927U, 0xdde7537a0aa719f2U, 0x40f53905d834c311U, 0xd00cebea22ad0cd7U,
  0x19d5befbc8372501U, 0x33da13c0e4dd041aU, 0xf33049f6f2f781deU, 0xf7ec25e832d8d9dbU,
  0x3be0cfeaeb35d73aU, 0xf1bfb6c9d030e300U, 0xdf40f2c703d92547U, 0x7fa73227ef0f3b16U,
  0x1913f209d91537e8U, 0x9afac3b425d72641U, 0xff212e111fb11f9U, 0x8fbe8a5031cfb01U,
  0xa60de10fe8d1621fU, 0xea092b3937e2d60dU, 0xd12725e27fca09b1U, 0xad36f520fa20be7bU,
  0x75eb0024f0ba12c4U, 0x47cfc91439b70598U, 0xde50270302f437f2U, 0xe13330ea17381726U,
  0xb03bb042c20ae4eU, 0x24bd2914f909e419U, 0x60fa5657f24650d2U, 0x838aae38fc80a98U,
  0x2f199611a1457f29U, 0xd4d43fec761c67U, 0xb4fb71eb0314fadfU, 0x310cf430ca054494U,
  0x5435de520609191fU, 0xe9fdff4647c89041U, 0x2e2e279eb91b25b5U, 0x17f003183403fd3bU,
  0xdbf309522ff70766U, 0xee128edd9ed1fd7U, 0xca292d3bc8fc3af2U, 0xa31e6cef2dd4700U,
  0x8144df120117f5ccU, 0xd6061fcc03b8cdafU, 0x120cd0090fcc43f1U, 0xe704c913f904f2e8U,
  0x451bcb0af50c4cf2U, 0xc82abebacfed3505U, 0xe202303515fe1bf2U, 0xc505ebf4eee44bf1U,
  0xe8d6e325177f0825U, 0x1ae3df33f6e7f5cdU, 0xd015ec00a8daf0fcU, 0xeaea310bf1b3022cU,
  0xd7f3fddd41240cddU, 0x1a7f75fccd0015cfU, 0xdb2a42fa331ce7cdU, 0xe509b250a9174405U,
  0x7a3ca5abd2a19ecU, 0x35000b281cdc1010U, 0xf11f0fb21de664f2U, 0x3c3e573306a4d0beU,
  0xfbd10f2c1414eb5aU, 0x8ece32091515fb0eU, 0xc7c333af1b1a7f0dU, 0x9fb679edeb41c31bU,
  0xf9082e26ed333425U, 0xb002ec0d191cf0f2U, 0x151cda19ee81c343U, 0x1645d202e2fd04beU,
  0xfa27320200f0c9e4U, 0x46bd58d32adf25faU, 0xd1d900ba02d8d5ffU, 0xf0f4e840ad0c28d0U,
  0x13ff1028c43e05beU, 0xc0121540d9d4101aU, 0x17e6cdf422e0161eU, 0xd61b53c1f2c778d7U,
  0x192c8d521a17f9c2U, 0xf0c3fbf41a04be93U, 0x306b0ef0d028461aU, 0x10011de606e62f2eU,
  0xf1f52e090cc781b8U, 0x388e25b53e53e3dfU, 0x40ebf00c81011566U, 0x38ed24f8f84344a6U,
  0x4d1ecd1eef1c17d6U, 0x2b0a5e9e06eb0f41U, 0xfcefdfdc1106ebc4U, 0xe2eaf2b220f23434U,
  0xc2bb000344f6e310U, 0x47e3e423e6fbe5dfU, 0x6b4ea15c7d9f939U, 0xec44dbddfef0fe0bU,
  0xce53fa341fb5161bU, 0xd0ee7f190cfa0d61U, 0x270c4ec2c4f934ecU, 0x1b101fef12de5fd0U,
  0x513ac3c413291edU, 0x64abc973706c236U, 0xe5368546ee92f1daU, 0x27093c751081cdfcU,
  0x154728f301123443U, 0x9a9f0dd8dbad3cfdU, 0x13adf8f1f1fa9a2aU, 0xb83d1c34c6be2f56U,
  0xcfc83743ee0d2d2dU, 0x5e62362d1cd5a4cfU, 0xfdab4d2820ebd800U, 0x33da6dd6d49569dbU,
  0x36ceb5053a092ee9U, 0x808be13a21ba1ffU, 0xf304db50aa404812U, 0xa738f5c36cc01118U,
  0xcde3e581cc9e05d9U, 0x3b6d35e8691adb9aU, 0x5200eecae3f2116U, 0xeb2b06e9c0062a44U,
  0xccfbda2eed24e7c6U, 0x16d2fac20708d60aU, 0xeff4b22a37812de9U, 0x57cf31c90bdf7bb6U,
  0xc7dba2c9e8f007daU, 0xed2d4bd91304ff48U, 0xcf300154321e61eU, 0x3401eb8dbea3dc6U,
  0xebbd34c0b0be784dU, 0xc28103282fe7f707U, 0x910bc8342b1a0c2dU, 0xbc5705369add1315U,
  0xf3cf240f191bcceeU, 0x23730f7d11d4b0U, 0x43be1e10103e826U, 0xe72cebdff72feb12U,
  0x20f00809f108ea06U, 0xd3d8de16f8220c19U, 0xa9f01afee6e4253eU, 0xea3e1704ff3ef6f6U,
  0xe2c2725c5fc23ccU, 0x24ebc93b3d810ae4U, 0xdf488ca61efb321bU, 0xcbafd19dd9cf2409U,
  0xee58d2162281b8ffU, 0xd16c81dfee7e53cU, 0x15cfe16b30f6e7f9U, 0x2355ecf115300ec5U,
  0x9dce1fe2d3d933b4U, 0x7ac7ffa3251c220aU, 0x16ebd718c60dd4c4U, 0x1a070281efeb1b00U,
  0xed11a702bb043e57U, 0xb92ebc2f1844ce08U, 0xeff8f5cc350d4cfbU, 0xe018c1c22ecf5bc9U,
  0xacb2e2f511fafee6U, 0x38ea0fb159dff6f2U, 0x2f28fdecafe48161U, 0xdf1e2abd12ef1a93U,
  0xeded33211fc30746U, 0xfe3a0e5521f40410U, 0xc641e9d7fa62cf3eU, 0xe00accf1c5410ebcU,
  0xe53ff3011cf1e0e9U, 0x16ea1e20fde7d77fU, 0x5fe3c9e3a1d3e6c0U, 0xf324d4c8e14f0348U,
  0x10e3b10fee482e33U, 0xba2350e9cceee0e2U, 0x1ffff72a2e10e943U, 0x2cff0ee6dc323b79U,
  0x3cdad637db1cdcd4U, 0xa7681d95dff446aU, 0xcf2ddef71ada0101U, 0x34013e3f0306d301U,
  0xfe12ef040d1008faU, 0xef1edd1b42c9f903U, 0x5f0e1f928400603U, 0x2310fcf1150cda1dU,
  0xc13f8147ff2e139U, 0x6031dff201c27f6U, 0x3638fde90e20ebfbU, 0xf8a2b231f0e39edU,
  0x29b39ad2a0060f1fU, 0xeadad3e5b7cd45ceU, 0xe70d13330c96a422U, 0x42df42d906f0cc39U,
  0x450fdbfccd662418U, 0xcffb1235471381b0U, 0x1f00000005U, 0xfffffff1fffffffbU,
  0xbffffffc5U, 0xffffff9affffffd8U, 0x2800000024U, 0xffffffdbffffff97U,
  0xffffff9fffffffe7U, 0xffffffd8ffffffc6U, 0xbffffffe4U, 0xffffffdfffffffacU,
  0xffffffeeffffffd3U, 0xfffffff0ffffffe0U, 0xffffff9affffffdfU, 0xffffffd8ffffffbaU,
  0x8ffffffd7U, 0x47ffffffbeU, 0xffffffe800000007U, 0x700000004U,
  0xffffff7300000007U, 0xfffffff1ffffffb6U, 0xffffffeb00000037U, 0xffffffa0ffffffdaU,
  0xffffffefffffff51U, 0xffffff7affffffd1U, 0xffffffebffffffb6U, 0xffffffb400000003U,
  0xffffffe9fffffffcU, 0x27ffffffc6U, 0x6600000005U, 0xfffffff3ffffffbdU,
  0xffffffc2ffffff3fU, 0xffffffbcffffffeeU, 0x700000027U, 0xfffffff3ffffffe4U,
  0xffffffc6ffffffffU, 0xffffffbafffffff3U, 0xffffffddfffffff1U, 0xffffffbbffffffc7U,
  0xffffffd5ffffffa2U, 0xffffffd40000000fU, 0xffffffc5ffffffbeU, 0xfffffff1fffffff5U,
  0xffffffe200000024U, 0x4ffffffeeU, 0xffffffcbffffffcdU, 0xffffffc2ffffffe0U,
  0xffffffc8ffffffe1U, 0xffffffdcffffffe5U, 0xffffffc3ffffffb9U, 0x1affffff76U,
  0xffffffee0000000dU, 0x17ffffff8aU, 0xffffff9cffffffe2U, 0xffffffe3ffffffc5U,
  0xfffffffbffffff89U, 0x49ffffffdcU, 0xffffffb3fffffff5U, 0xb0000000cU,
  0xffffffd500000003U, 0xffffffb4fffffffcU, 0xffffffcfffffff99U, 0xffffffd4ffffffb1U,
  0xbffffffdbU, 0xffffffa200000010U, 0xf3c0b7a20ef30e6cU, 0x384d818dea7fa8f7U,
  0x208e07fa2481177U, 0x58d97fe51e655ff1U, 0xcff027c93b7f7f84U, 0xf05c694dd371817fU,
  0xe98f1481d2ff56d3U, 0xfcd613e0814a4431U, 0xc1287e43539dc0b8U, 0xba964681cdc8ae00U,
  0x7f1f11ba3246d6e1U, 0xb0af43c17b0e09d6U, 0xbddce35a44033330U, 0x811b639a12fb37d1U,
  0x1981dd10bf4a372fU, 0xa72e31145702450U, 0xce9e04bf7fcfeb05U, 0x417f9893f37f81baU,
  0x43f20f18bc78057fU, 0x23ad3b0b3a7f3a44U, 0xacf905cc5a456489U, 0xb87fdf221d7fa9e8U,
  0xf0adfbb908757e81U, 0xd9a6622a04b7f3fU, 0x89fa75372481eaf0U, 0xfc813e81d3c2c583U,
  0x4f33ddc3522db4beU, 0x8181368464b9e407U, 0xb581c4492581c255U, 0xb3334a814618217bU,
  0x1da512420f3c7f4dU, 0x197f25263a60266fU, 0x19dcf3c466c53d13U, 0x312de6dc7f1ec208U,
  0x204f81bdc3fe1244U, 0x81c9dcd2425a0036U, 0x23541cda475b74caU, 0x1a4ca7300f4eddf7U,
  0x35a9fa1c11284acfU, 0x12e250e0c6203971U, 0x34e31d074bd420f9U, 0xeee114989a81fd95U,
  0x607f17b01b510aebU, 0xd2cd05c0e5fe13feU, 0x20dcfa32e59ee836U, 0x95f90db341043c7fU,
  0x59a407e6073f2b18U, 0xd521f25fb2d1d5dU, 0x819b0a62ace57a3cU, 0x9f023e1cf2441f6U,
  0x3b4d4740fdee22c0U, 0x5f3a1d1d6452090bU, 0x8581bde6b6f7f1d6U, 0x9c237feef655123fU,
  0x81f396b5871e171bU, 0x902d1657f1b90fe6U, 0x8cce222716d6aa81U, 0x78107f021cc2e97fU,
  0xc5c8134ecfb979bU, 0xdce67fbb7f05173cU, 0xf92b32204ae8ed15U, 0x157f811d8152eb8aU,
  0xdc610f43fa01f976U, 0xa628d781241769caU, 0xa7ac4c7fc7b53af3U, 0x2531fa2abf10fecfU,
  0x3b4b7dee2ffd0288U, 0x4545b1117f5fc74bU, 0x818386efbff6c932U, 0x812c0e897f54fbb2U,
  0x906981dcb94c5decU, 0x81141c7ffa81212dU, 0x9b8ee33b22d7bb87U, 0x7f1773d56ae526fdU,
  0xf6688d59e0ee8181U, 0xc2df7e9462811833U, 0x1077f0762bc8109U, 0x4f51ccee9256b766U,
  0xbb64416073f63d7fU, 0x81395e8d18ff7fe4U, 0xe9c32403f6dc37d2U, 0xbee771117af27eeU,
  0xf433b7b301db46ffU, 0x986f97001d31c67fU, 0xe9ebb8fa9ceff115U, 0xc412bd085f563816U,
  0xb337a941c70bf2f6U, 0xc3311f4adce5abe2U, 0x249aceed3c3d3ddfU, 0x60fa2e0e01ed05c6U,
  0xf2469830eec30fedU, 0xd7f13aede2d82c61U, 0x7f26510bc6f7e105U, 0x18530cf2811ae654U,
  0x4d410efe3d040841U, 0x9e0342d1f21256e6U, 0x97f1b60d0e0817fU, 0x81cfeb6cb89e7831U,
  0x96c63d102fab91d9U, 0x8d2bd77f90fc9fa0U, 0x8bc2aa518aadb393U, 0xfff7f5bfe9ee347bU,
  0xe9190ad26f81815dU, 0xae7181565d0c2671U, 0x817ff805970cdeefU, 0x4674fd6a46b24537U,
  0x9c135d3e8bd2f436U, 0x120345671518812dU, 0x10e254b97ffaf2d0U, 0xffeea350334fb9e8U,
  0x9a2c6fb447d1e5c6U, 0x22bb81029f99f9b1U, 0xe717f6bbe819a47U, 0xcdd8f07faebc3d7fU,
  0x81b85ec47f8181afU, 0x904ad562972781e8U, 0xcadb817f818de181U, 0xe5c7eb812e3f2c43U,
  0xf97f0cad7fb9b73dU, 0x8d7f864d290e4d7fU, 0x8147c5a2813cccb2U, 0x494e26797ff77ff2U,
  0xb112447f8191d8fcU, 0xdd45517f0af6ab7fU, 0xe7ea588175f6b381U, 0xe7b5e238277f8134U,
  0x813a7fb07f8117bdU, 0x36a2e2fa8181ff81U, 0x2e637defdce4be0dU, 0xf7df5a5417955050U,
  0xbf81fbe75ab5f7f7U, 0xa87fbfd9850aa342U, 0x231b059b1dcbd99U, 0xe9d9c4c12ffe4363U,
  0xd9751fe461d2c83dU, 0xdf4ee9eb1bf5c229U, 0x38298181aa4f7f4dU, 0x2004ea7a49f8519aU,
  0xb5d63307c0814727U, 0x122bf171c3e5e93dU, 0x380e39bee5341ba2U, 0xbdd0343b1d35ee8fU,
  0xf6f33081f20308b2U, 0x1a99e0fdbde4efbcU, 0x0U, 0x0U,
  0x0U, 0x0U, 0x0U, 0x0U,
  0x0U, 0x0U, 0x0U, 0x0U,
  0x0U, 0x0U, 0x0U, 0x0U,
  0x0U, 0x0U, 0x0U, 0x0U,
  0x0U, 0x0U, 0x0U, 0x0U,
  0x0U, 0x0U, 0x0U, 0x0U,
  0x0U, 0x0U, 0x0U, 0x0U,
  0x0U, 0x0U, 0x0U, 0x0U,
  0x0U, 0x0U, 0x0U, 0x0U,
  0x0U, 0x0U, 0x0U, 0x0U,
  0x0U, 0x0U, 0x0U, 0x0U,
  0x0U, 0x0U, 0x0U, 0x0U,
  0x0U, 0x0U, 0x0U, 0x0U,
  0x0U, 0x0U, 0x0U, 0x0U,
  0x0U, 0x0U, 0x0U, 0x0U,
  0x0U, 0x0U, 0x2e5dd8fab425d587U, 0xcda34c8132ed3dedU,
  0x1755e60c21d5f0e9U, 0xffc5f21ac1f1f101U, 0xc74aeb0e1505131aU, 0x21e3f3d01eb004d1U,
  0xecd0fb4cc7a651f2U, 0xf40fc9db0101fe1cU, 0x201103eee1eb05c1U, 0xc221b46a60e60046U,
  0xe4051639f4d5b5f1U, 0xe66d2d34de10dbf1U, 0x14e050385d2a480fU, 0x6400f4d410da6092U,
  0xbe01c037b1e2d715U, 0xefe1641e2b4f5306U, 0x149def74257fdd3U, 0xb6f855f3ae6df203U,
  0x3ac8e8fbdce259c0U, 0x51279bde601d5ffU, 0x16584bc534f4c415U, 0x3a2af2c92ae8e5dcU,
  0x2145b00411ef2f1U, 0xd8e3ce0f81f5391bU, 0x212da5323b0df23cU, 0x3fcbe715ec37570bU,
  0x2ef9f333be19c809U, 0x3de5364d38e90220U, 0xeecc481a0e0e3f29U, 0xef2bef1e0de327f4U,
  0x1a9f1e1a0b2ed604U, 0xdf1be2e8def7e2ddU, 0x35cae4fc062321faU, 0x37cc1453112bb421U,
  0x12cc00e8dd4f1426U, 0x9fbcf0f07f220ccU, 0xf1e3e01ef62acc2bU, 0x360d44402ab96f05U,
  0x36cef0f3affc33fcU, 0x1604a02a16c62403U, 0x2623f9fcb629f81cU, 0x2f030bfb590aed2cU,
  0xfffbc1dbd92a22d1U, 0x197fea02066b2edaU, 0x130f151f0320e7deU, 0xeca6cfebe3ee50faU,
  0x5e018b28eb078bd0U, 0x4b110bef12f612e9U, 0x61fa1b21c620fddcU, 0xefcef6111b2953c0U,
  0xff06373918f9da4fU, 0xfc49eceac400bc1cU, 0x1b2503dd2c32faf8U, 0xfd262afd13e93106U,
  0x1013d2052d9e24d5U, 0xe1ca3fa1e0d33016U, 0xd7cf0d2f050f0dfbU, 0x81eef85023502a2eU,
  0xebd60eff7ce32ff4U, 0x32323c22f8235c63U, 0x17f8f1f7ce0f10f3U, 0x1ddcdcc7f8be25f2U,
  0x829e2ffc51adb47U, 0xeb0f4d13400cfff8U, 0x2ee331304d40bfebU, 0x8fec3b07f7c190abU,
  0x1dee7d1e030b522U, 0xbc4692fe701c0aeU, 0x41ec43eff10df8f2U, 0xdd0dd1d7e2f8e8a8U,
  0x7dfbdc35e6e9edc7U, 0xe00c0b8110f2abaU, 0xf0abde0601c3e9d5U, 0x34e9812bd31d2909U,
  0xd2c30dc78c32c9b6U, 0xead0722f822eb19U, 0xdd5de5fe3039e038U, 0x54efcb1a0102190aU,
  0x2ef8e7dc453ee8d0U, 0xb417240d1d3315ebU, 0xf91b1ac5dbfca2ffU, 0xeac32127422fc4e0U,
  0x190ef620f7570e6fU, 0x1fa7fffeaf181cf8U, 0x4ef348ffdf074a0aU, 0xfb28f69baaf6f9f3U,
  0xe414e6ea1e1a2148U, 0x14d83421ebce4252U, 0x11030fd3d2f216b0U, 0xcf111eea49da26d2U,
  0x1e2d18f313273afeU, 0x31ecd608ca9ad2d2U, 0x343d11dde0f739eaU, 0x1437452322cbb627U,
  0x7f26e6112905f41aU, 0x3e304600c803b718U, 0x4714f4072bfbd0e9U, 0xbb06e4daf7120935U,
  0x7712dab829c90d05U, 0x1bc03a23f2427f0fU, 0xf1f058c3dfebdaf8U, 0xf1364c37e1c946e2U,
  0xeee617ffccfe18c0U, 0x7a08382d2f0f44d6U, 0xdce54c55d4acd025U, 0x13c40e23d8f41910U,
  0xe64101dabaf81217U, 0x336d922f192bf9c8U, 0xd453fcc5f5f6cf16U, 0xbfccc120b2333e7U,
  0x20a51569e8caebc9U, 0xe3031b00fa0fbe15U, 0x242dd6f0d42cc20fU, 0x510fc2414064028U,
  0xd20b1e38f5f3e31cU, 0x2becd0ec1af2173dU, 0xf6d06a0125df133cU, 0x4fe1bb3fdc1741cfU,
  0xa0c3cf904f46fcaU, 0xc1cce1bcad75a0bU, 0x44c7cd15ce120800U, 0xd08d3f327260798U,
  0x9427001d353c39d4U, 0x311f062a323ad3f6U, 0x17f5f102d6052b25U, 0x59e01c063ac75722U,
  0xfbdcf369c6bb352cU, 0xd75e03b2c124f281U, 0xfd23d3a3ede214feU, 0x9a93c335f7eca7a6U,
  0xf7ec34eb1129f2d9U, 0x2dde22ad14e63152U, 0xaea2803c8e6ed05U, 0xd2f1f7ed26d80d3aU,
  0x8159bbd1d434f1e2U, 0xf7e1362109471becU, 0x4261026030644a26U, 0xdf433424d1f85243U,
  0xd7cccbe25645021eU, 0xc9aff41b9cd537ccU, 0x44fd830f1d15f917U, 0xe7bb030720e7c1efU,
  0xc1da21f20cf3fdf5U, 0x1ec6fcf520e7eff0U, 0xd0ec08d3352cd7ccU, 0xc3021c05232aec12U,
  0xeead02e1de1d27c1U, 0xf2f1e44bffdfdf11U, 0xfcfde10707c2d4f7U, 0x706ea400af8f8ffU,
  0x4f62119b50cc6ceU, 0x2b0122eee4edfd17U, 0x7f09080fc4cfff06U, 0xb9e8100709221a00U,
  0xd0eaefd3fa57e50dU, 0x42dccd1223f8eafaU, 0xe811f0d3f84df8dbU, 0xf0f8d9ed472bf2f0U,
  0x5bf22bf5041ac00cU, 0x8c405ff4fc004ebU, 0xedd40d0d1628f1cdU, 0x49050b04f670eca3U,
  0x65f1f6fbfc33e0ceU, 0xf629520c60fa04fcU, 0xa1c32d932e50529U, 0x1ce000112f2248aU,
  0xd5652438d74cb0ffU, 0xe92ef8180a263328U, 0x48381c39e40df9e0U, 0xf81e1c468924e00fU,
  0x1320236e0fe0fe23U, 0xfe19262324eef0U, 0x3decee410c1afd7fU, 0xf09dc3360eef2c0cU,
  0xeaf9fe18d3ebdce6U, 0xd9241419fe0a07e9U, 0x3714dbac052312f8U, 0x8d105f90addbce2U,
  0x380bfbd62d1afef0U, 0x9fabc1d1bcc02a0U, 0xea2dedb80d2e0331U, 0x7cfd37feff0ef0aU,
  0x2644e404d3e814feU, 0xf0d8cbf8391c1ec7U, 0x3d1304112222e60aU, 0xc3100b032005f445U,
  0xe4f0c715cbd11eb5U, 0xf83837ed34232ff2U, 0x2fa03ff1505cff1U, 0xf2f3b0e822be170bU,
  0x511c5e20dfce21aU, 0x24fe073352200202U, 0x2e33e2fbe120d2eaU, 0x632518dab9c023caU,
  0x4c05033ec7e62f81U, 0x1dd3f7f70fd86821U, 0x6b19bce35706170eU, 0xdff6bdf10e142f03U,
  0xe9022b0ff6d0fa1aU, 0xec37463b9ca030f1U, 0x23b9fe2218dbc0f0U, 0x18bcfbd3f900dc36U,
  0xf3d8dee51f3d13f9U, 0x1f1b1f04062c08c5U, 0x1b33c639303dd0d1U, 0xd64c07d6120032b3U,
  0xf304a129e505f401U, 0x2ed310efe60c274aU, 0x150bfdd5eaf62898U, 0xa21cc62d57b0b9f9U,
  0x700bfab695dce332U, 0xed56ecffe8c62c27U, 0xd7d2ed963b9e117fU, 0xc239c57bbb4febaU,
  0xc1fbfb0b071eaee4U, 0x35f000ff6ffc479dU, 0x64454715eee5f148U, 0x23391cd801ea58efU,
  0x230bd625fef5f6f1U, 0x33582027545df52dU, 0x28260a9fb15b5453U, 0x294d133233c1e5deU,
  0xee4509f4e1fcd543U, 0xfad80acd2b2ef115U, 0xd0ff6250a46e6f8U, 0xe7f12cf10dfadf03U,
  0xecf0230effeafaddU, 0x178123e1beea1734U, 0x7eaf302e2cb0219U, 0x1250c0de7facff0U,
  0x1221b4e0b0661ffU, 0x13c416da0e2523e4U, 0xfc0fd84a420361f2U, 0xd820fbe1232e18ebU,
  0xed154bbe1e1fedd7U, 0x113413c9003eb3f1U, 0x1ade192c01d93053U, 0x46070927f41cf003U,
  0xe3ddfc51d5cfecf0U, 0x2380afefb032bffU, 0x3dba7a17ddd948f3U, 0x2db0321207f2e0f4U,
  0xf40fd30cf1cced17U, 0x57391cc5d02023cbU, 0x4fe330367ff12b02U, 0x27f02ba02dc1e226U,
  0x8d355baa20470dcfU, 0x3530f45d3aee23d9U, 0xa2ebd4ce80c14b6U, 0xf445e6c1e5dfb705U,
  0x420f21fbf1460922U, 0x562ff82ca92e20ddU, 0xde02111adfbc3a2aU, 0xd61bd4fa4e2032d1U,
  0xede013520ed6ba30U, 0xc1164f4223b13830U, 0xdaec0c2dc12dcec0U, 0x14042c090526e29eU,
  0xee17f63d224843fbU, 0x3233080ccfddf3d8U, 0xe5dffe09ffe3c319U, 0x3502001a52b4f31cU,
  0x2907e326e3f211f4U, 0x5ee4ece004c3f0e7U, 0xd92ef716e827ab00U, 0xd3fce50c1410354bU,
  0x16c9cedeed330dd3U, 0x17315501e0c0e12cU, 0xbc54ff20ed0911d2U, 0xf6fadcf8fab6201bU,
  0xe1fdea25d44cfc7fU, 0x2c022d130cb720cfU, 0xfd5b6d9bcc093bf6U, 0x36cde9db37162ddbU,
  0x26db83bc24d6e4cdU, 0x5b28f14b19e640cbU, 0x4010d08eee84ff7U, 0x2de9cd13d5ca21abU,
  0x45fdd17fa2726c6U, 0xcd2ef42b27e317caU, 0x7fa0ee00e324b750U, 0xf7f22d43c905dee0U,
  0xe7f8431feeee209fU, 0x3f4efe0c295040dfU, 0xbf15d1cb1bf85011U, 0xebf926e4eeb4e9c3U,
  0x1a1c81f7c6121e21U, 0x321ce8f1c50f02caU, 0x27f90509f5de0edfU, 0xc9fbf2f2c1d9fbf7U,
  0x100105ea10f7fc07U, 0x430a321ec604d8d2U, 0x4d5a09060e12e116U, 0xfb11e80bdff504e8U,
  0xf115231110121cf8U, 0x71e1bc3c1dff5f9U, 0x2fd219f916ef7f0aU, 0xa31dff62f7144412U,
  0xe1adfdd1201186eU, 0xf1b17d20ad9233cU, 0xe730ce16ef2be1f0U, 0x1bcafb09fdd328f6U,
  0xd6eff2b8bdd907f8U, 0x33e63a05fbdbfa0dU, 0xf2ddcffb0e2f25e5U, 0xc0a531c3dbe4ecffU,
  0xb0bff288b112c0f2U, 0x19eb0cd1c509b6fcU, 0x3330cef1ebf66216U, 0x42140819471aea43U,
  0xf606401ced09ccdeU, 0xd1a6d981eaf911baU, 0xea0fd92832bd21eeU, 0x37100f4ed640d2c9U,
  0x21c7bd3c4cf02713U, 0x18719beb14f138f8U, 0x77ecff28d0351414U, 0x485c4d1cccb40324U,
  0xdff23c1aef370bf7U, 0xb90e6b253015bdedU, 0xc1041bd8141118e5U, 0x4360b40def6f224U,
  0x4da16ebb4d10d23U, 0x29c1f1c210b947e7U, 0xe835222bf9092c33U, 0x2102f90510eaedf3U,
  0xb822f16c3cf7181fU, 0x26da310e024ed715U, 0x1e10e1051bcfcacbU, 0xdbf9e515ee06e80aU,
  0xad0c06fcd843ecddU, 0x444104ecc218eef3U, 0xa7fede1e1dfe7fb1U, 0x37fc01f9cae60f5dU,
  0xe104fab9ed49f7f4U, 0xe23fe132e913b942U, 0x9c2ebbf21ebeff3U, 0x35a9d4ede829edd9U,
  0x48c62fe128630704U, 0xdc0dcfd3feced5U, 0xeaf4a49830fdfe1dU, 0xe423d442ebbbd5cbU,
  0x739d3fc4928092bU, 0xb7d8fed523d2e1afU, 0xf7cf0a29311a0bdbU, 0x8fe4ed28dc05dff9U,
  0xabde203a0fd52fe0U, 0xed46d7fbfce57f52U, 0x211fd8e40040f927U, 0xd42210241cd95d0dU,
  0xb545b8b5bd0e42dcU, 0x55f80a3beeedb424U, 0xf6faf4f1123a14c1U, 0x26c6f032ddde06adU,
  0xe3a9fa054d23fef9U, 0x27fe2cbdf80e2c3dU, 0xfa77382e2eea0c2aU, 0x54dec859f5cfacefU,
  0xb0cc3cf98ef5ebc4U, 0x2e3b2235fdee74deU, 0xe20f0907c4d202e4U, 0xce03470e0506fd1cU,
  0xd66dd02018ffde16U, 0xe4eff0ff08ddfec4U, 0x2df6b63e16bfd7b6U, 0xe7f8fa7f01ad2d19U,
  0x46093e03e2cefaa8U, 0x43efeae3cf1c29ffU, 0x371ca02104062102U, 0x300144ef38f3e218U,
  0x31350c221af9ff0cU, 0xf6fbd4e7e304fec0U, 0xf006d886e3fde9f5U, 0x23d9ad082c9ae510U,
  0x10c033ffccd5e915U, 0xd3ff6def4d3054bU, 0x2d2cff06f2eaf0f0U, 0x3dcc27f2dfb120cU,
  0x27371e3924bb12f0U, 0xea0ed3e2bbe5d002U, 0xe3e3fa2a170eb123U, 0xf0209af22edd32ddU,
  0xb26101feed7f221U, 0x38fd130b1b092b08U, 0xf80125bd4ddce219U, 0xe485ecf52dee29fbU,
  0xed72ef3ee6b0de4U, 0x14f22e81f2fa10f9U, 0x6608bcc428092a05U, 0xe542e011fbeb07b2U,
  0x3cfd0711f70131d1U, 0x280de4bafe392e0eU, 0x18e353d6f90efdebU, 0x60df6420ff51fd1U,
  0xe742e9cbfbceef2dU, 0xe20fdf2cabc61831U, 0xfb2896d6cfc3e3f2U, 0xfd1dea1ffa0f37b5U,
  0xdd2feee4fed7e8d2U, 0xf8ca0413b7bcfc05U, 0x261b32eac73ac2f5U, 0x11f3bc051a3dd9e5U,
  0x44d407ed0b0908e9U, 0x11032d4265cc141aU, 0x7716daf448ecd954U, 0x2115081601d644ffU,
  0xfef8601ffd460e5eU, 0x1abf12fd32f44df7U, 0xeefcffe719ec200dU, 0x7200502051d9a09U,
  0xf543eb0eb72b24f6U, 0x4933e6e81dd7d6f1U, 0x1ff9a456f0fdfac4U, 0x9fc03eb208123f0U,
  0xf523f801c3e0d9ceU, 0x23fefa060228e227U, 0x22b30c2ff2e21f4U, 0x230c103609cd140aU,
  0x16cff10d061cd2d0U, 0x3b0e1cdfd8e505fcU, 0xe9fc1edb091c15ffU, 0x27a514f8e8f4f9ebU,
  0xda2ef0260f0b01f3U, 0xddf50322daddf0cbU, 0x3dfedd7fd3b111eU, 0xfaf7d510f513f2dbU,
  0x20620e5bc0617dfU, 0x2cf5cffa1114d93cU, 0xe121eff91ae67ffdU, 0xbf0c20f14cc0ee3U,
  0xfc08e1043647ffdbU, 0x729fadbea3411d6U, 0x2e331112074d0ce7U, 0x412ce9e3ddfcc1dfU,
  0xe619d0c1dfbb1acdU, 0x368103fcf5db4fc9U, 0x52e9ebff1c1a0f63U, 0xf3b3fd299f24ea20U,
  0x8dae2e23cbeede3U, 0x4c991a4898e71cf8U, 0xec42ffe00f115ffU, 0xe1ed06ce34fe1f00U,
  0xd2a40609c8fa0a08U, 0xea3e08ed4ef9f8d5U, 0xce252598082af9f4U, 0xe22b0aec250b71bdU,
  0xe4d4e7192105d6dcU, 0xd9eeb8d6e42a48f5U, 0x3925e2e924ea3bbfU, 0x3b9f0e826e7e204U,
  0x102ed8a0e81edefcU, 0xd7edf2fddb9ff63aU, 0x26ea361223e35252U, 0x846e612fc12e309U,
  0xdb9f082323f1d4c4U, 0xdabf311ddde91afdU, 0xc89e3e26ab49c02dU, 0xf7e42c1a2319052aU,
  0xc841b6ffb7fd12d9U, 0x6de0de0e4fbe7a1U, 0x35dc1cf94512faedU, 0x170ef4c62ed246d2U,
  0xf6e09c3b3323a7ebU, 0xd62aaf0b14abdc7fU, 0x21fed0d1eb2711d2U, 0x2fd12ff2f3ebf8cbU,
  0xebc2d3d7041efc1bU, 0x2af413a234002255U, 0xf8fa15d621d3f046U, 0xea81d9facb23f009U,
  0xd53907f224b704d7U, 0x29ecba32f519272cU, 0xe4f24b39ed2138e8U, 0xef21dc56f5f72829U,
  0xf1c7d6fff51d2f2bU, 0x224114011d0125c7U, 0xe0f2cf0b122dcbf6U, 0x22340ff40f1275e6U,
  0xfb11c91706fafee3U, 0x14dbfe27ff52514aU, 0xaf1c3132e52af1efU, 0xd91efada1e0f04efU,
  0x42f030faee183feeU, 0x4219e4e20bb92e11U, 0x5e7e8fadd19fd41U, 0x262c13cdcbccd630U,
  0xea261938d34ee2aaU, 0x23fad532592bb5fbU, 0x9c3cce542f4db01U, 0xc8c01cedfc1ff60eU,
  0x81e953210517c33aU, 0xc8e5020e0309cfeeU, 0xf5c92d5026135805U, 0x39ddef56eedffcf8U,
  0x23d3d72bd5eedec7U, 0x34fd0523381ccdfeU, 0x37b00b52dbf641beU, 0xf546fa13b8060c3fU,
  0x4a245024ce63e56aU, 0x14b90f02f8badeccU, 0x18d9d13dd209195bU, 0xdccefee6f2d1d629U,
  0x624125e97f0b501bU, 0xea2eb04f346be36U, 0xfc627af591702cdU, 0x350394fce8352f37U,
  0x301911140df8ce2dU, 0xf2dea701b61c60fbU, 0xc712cf48abe735faU, 0xf1f6602d459a0c20U,
  0x55f726d3f605e121U, 0xdc62a8b6cf3c98efU, 0x58d808477a294df3U, 0x1ae5f2e21a3110ddU,
  0x3052112fce14d30eU, 0x1a1f13f3d40008e4U, 0x40c4dbc210011c21U, 0xf1f7f159b6c90412U,
  0xde2808e6ca35eb26U, 0xb29361dac2e1fcdU, 0xeede5f73018a9bdU, 0x5043dcbeeef9b0e2U,
  0xc910dd09e60431feU, 0x150bfed9d4e4cb1aU, 0xce71f0c0af60c08U, 0x1081f2510a2dfe04U,
  0xe8e55a40d906e322U, 0x15ed1ddee7e74cb2U, 0xff003e0fff0adae9U, 0xcb08d2c0d44e0101U,
  0xa02b91c5ff72dfdU, 0x139ab4eceac1decU, 0xd42f7fecc325b53eU, 0x52e60a37ffeccc0aU,
  0xc1e21282e11df00U, 0xa9e4ce07eefa46adU, 0x2d25ca0739cbee2eU, 0x43fe200ffcf7e3e9U,
  0xc168ebc1f0a63beU, 0x34071856e3e9fc2eU, 0xea220d4eefe70240U, 0xa55a04da29a617dcU,
  0xe9fcb2f20e0e9618U, 0xf8ad0e243be21f12U, 0x2b6e4f6073a19c1U, 0xf0b622b5fa8ea62dU,
  0xe9d11af29a25c91fU, 0x1f0a2cedb908aef1U, 0xd135f6fafd19c518U, 0xcf03d6d1d1e30306U,
  0xcbe6d254022c2232U, 0x26a5fdd1c7e0d408U, 0xefbd332feb2422c6U, 0x445ac5f5814dea18U,
  0x23c0211ffb057146U, 0xea049e5bf4523f3aU, 0xbf8d946454d1fb3U, 0x142c38eae2f73225U,
  0x27bbf27bc2e5bac3U, 0xd833c120ee0b0537U, 0xc9211deff416fceeU, 0xcea21628f7e2d4f8U,
  0x4d091af8255e3b0bU, 0x10e1ebd13cc5f7d3U, 0x132000c52ed64bf7U, 0x18ce39d22f1adc17U,
  0xdb2c4230c9efd5ffU, 0x2220c08003906ebU, 0xcf0805cc21f7220aU, 0xc1e6220f13fe0af8U,
  0xadb392cbe18ecfdU, 0x1712ead207d5ecccU, 0xdbf12d2ee2223a02U, 0x2f0f2d24d4c2e83aU,
  0x2ce4b0d1f3bae512U, 0xf8f0137f4defd6e4U, 0x9f300c6cf5367e4U, 0xf2020bf7f1cd291fU,
  0x1a3416067f4411b3U, 0xe1edf40cf3d113f8U, 0xddd8df39c6ce2308U, 0xe8400334e6d6d4a1U,
  0x1f6b7b7302002a5U, 0xcaeb012408fafda4U, 0x1cbd2d491102ca03U, 0xb316fff1f839ad1fU,
  0xdf14e70d53cdc693U, 0x4aedebc701d05af9U, 0x27641617bffdf614U, 0x235723d9f3160b00U,
  0x3253db3abab6da1aU, 0x5cc3c39c614fa8fU, 0x1e369bfd04022ff1U, 0x2ba9d40211f9f4b1U,
  0xef4f070a0517df23U, 0x11d730f902e408e5U, 0xa6dd701a1e0a3cf7U, 0xe620ca19810414cfU,
  0xc9fcfa03e9178aabU, 0xbbef1cf4c8133cf8U, 0x1d23dcdb1f3d3304U, 0xcc0bbc3facfbf06dU,
  0x5dea0505ef1f2437U, 0xeac211f8dd1cfde4U, 0x2a23e7dd090530d1U, 0x2543b2ca0dc5aebaU,
  0x172ed0fcecf909e9U, 0x6cc4c292a9f2a3dU, 0x1108da4feffc22c7U, 0xe608ffe5e914c806U,
  0xe32be1dbfae77ff5U, 0x2fdac60d14a72109U, 0xfb174a1c02040d25U, 0xf1e402e3f234f0f4U,
  0xa1d714fb010ad709U, 0x8df21f40bfd0fd5U, 0x35fef805e0f9e1e1U, 0xc6f0e0d117f0ee3cU,
  0x1b01b8e0d106131bU, 0x17181007ed2cf813U, 0xc2eeb23531318eaU, 0x120ef6f41127f021U,
  0xf927f9fef9fbef05U, 0xe11438ffe7eee4efU, 0xf5eec6fac62a5cb6U, 0xda20f6e2c922181eU,
  0x13309571d210ecdbU, 0xc6b5c53537e9f868U, 0x18064db5f0630558U, 0x243f2439e4991801U,
  0xc538cd0318e6d7c6U, 0x47c300d4f1fa34dbU, 0x31c6cedd16d735c8U, 0x274fae81c00fc4a5U,
  0xd728f1fc400fcbb2U, 0x32152120ef2ccb3fU, 0x24450f49b62c3609U, 0xf908dff517e6dbd9U,
  0x4423033ee3d0f730U, 0xbaab1f02d9f157ceU, 0xf807ffdf283604U, 0x6e8d41a3cb3e800U,
  0x1c8f9f79939f302U, 0x1f282326070e0005U, 0xf730ee04b9371713U, 0x41902fbdcc633f5U,
  0x3ac908ddf6f23febU, 0xfa81d70edaf03115U, 0x6504bdd612bfc6feU, 0x1de80502dcfed02dU,
  0xf1c2eff7b70c671eU, 0x15480a142ce100ccU, 0xbf6ef4dda01f3f5U, 0xfff8efb10ee418e6U,
  0x7c836fb1a3908cdU, 0x2bc30922e9e7f9dbU, 0x4f72d9cf1e0e379eU, 0xde8908ca4519ebeaU,
  0xcb7bff212f8b011U, 0xd71d43a6fd2dfd42U, 0x35c4f6344129abfdU, 0x73edf012c4cc010bU,
  0xceb09fcf03ccdceU, 0x1d1208e3d1d13e4eU, 0x382891f2dcb22a06U, 0xca4deb4f0dcdd104U,
  0x2603dde8e616fa4aU, 0xf1eefff2f3eb37f3U, 0x262d02b1fcbde31bU, 0x1fd13d217ffbc1edU,
  0x790dee061efdcd0cU, 0xc4cdf3f2e3a817d9U, 0xef5c21011114e5b3U, 0xb970aeec4cc2de0U,
  0xf243f518252d2133U, 0x32a0b29fa9094afU, 0xb319fdf4330e2c4fU, 0x34f142d838a817f0U,
  0x4a0e0fcd72339e0U, 0xd7caeec119f8d5d2U, 0xbc6d2c1b33a05ebbU, 0x811f0b092c34e90eU,
  0xff413b21ef07f2c5U, 0x9e49dd9e20a0bb4U, 0x27560f261d210917U, 0x6ed332051abef324U,
  0xed23e9a63e03ef24U, 0x211d701f7e91626U, 0x2c00c33ee52ea6b6U, 0xe219f4f2b43cb60eU,
  0x1b94cc57fc3505e9U, 0xf72df5d028dae1e5U, 0x4f7504bcfa2af62dU, 0x5bc592e3cef60c1eU,
  0xcf537e5e967490dU, 0xc300c96b1635233eU, 0x47b5814f48426710U, 0x401c28f8c625e155U,
  0xca77d6994b3ffd5cU, 0x24520af30f56a0baU, 0xc8633b614ca42616U, 0x5ac3af1ee427e91aU,
  0xdef62cffa90dcb03U, 0xd4ee2ed4cfe02f47U, 0x1e0141f8ca361718U, 0x7fdf53b96910f0d0U,
  0x9e7cf25d9ea0f11U, 0x1836b007e702d9feU, 0xa02f2f33fb207fbU, 0xfcdf260808d235c4U,
  0xe99eed1e02af09dbU, 0x3d27faf506a5f910U, 0xebc70c8711fc310fU, 0xddf4cb1011272301U,
  0x214052e3e300ea0aU, 0x2228e63ac322efbaU, 0x1148fe2f330eefc8U, 0xeae43b0fbf2007dfU,
  0x171319d4d627cdd3U, 0x19e41e55e20e0beeU, 0xf22cd0ef44255c14U, 0xeefc9f2b47e633e2U,
  0x2af9f847db01b6fbU, 0x4c07deeebdfbfd26U, 0x12dbe0fb261f1229U, 0x140af70d0bc0e0b9U,
  0xd7e42ee6efbc34f1U, 0x7fe9eac6ebee0b19U, 0x3808f21113eeedd5U, 0xf01f2af6f224fff2U,
  0xe43518bbdaf30e06U, 0x9232603f1f0e110U, 0xeb24da14e20cef49U, 0x1718eef4c805e203U,
  0x28ccc90de1cbbdddU, 0xb0a43e9eff13af2U, 0x9f12316ea63ac9eU, 0x1df1730ae31281c0U,
  0xafa08e3dcf32d17U, 0x6b323e1f4a19bfcfU, 0x2a6a476fce430525U, 0x54dbd6d6f3400c03U,
  0x544eeffbddf3d090U, 0xc3ebecfef10d0be2U, 0x2216db34d51cfd2bU, 0xa3c34914e1290cfaU,
  0x1f50d8fb2020db1eU, 0xcbc4eed64b01ba16U, 0x1cf8eefaf2262ec6U, 0x2313f82deac01912U,
  0xf529cc001021e0f5U, 0x35315ed8f533fa50U, 0x10eb19131013fbe9U, 0x21f5fd09e9ebef19U,
  0x22fbeb3147be290eU, 0x2620fc19f0a85fd6U, 0x330f03c918ee4a03U, 0x39f2f205a63633e5U,
  0x1507d5111bdd9536U, 0xf5fbd11a3200f528U, 0xcb0dfb1b22cb1ae0U, 0x5e511f9f52bff20U,
  0x26e7ff26070b36f5U, 0x2708f1f8bf1601dcU, 0xc928e7b52ee8282bU, 0x39f5182fedffdc1cU,
  0x142f0ac39e2c15f7U, 0x11ca1f0ebb7fb022U, 0x46ededb4ed1309d3U, 0xd5e7fbf8e1d9d5ddU,
  0xe004f8fa052b334cU, 0xd2cef36b21ee40bU, 0xf4f900b13dc827caU, 0x17d5520813a32500U,
  0x14d3242b038a2ffdU, 0x57e0e6d0e73a4b22U, 0xea563125091523eaU, 0xe858fa671fdd447fU,
  0x1332fbf2ff50c826U, 0xf5e7d60a3d26faf2U, 0x24f04482438fbd1U, 0x17f40fe833fc2e89U,
  0x4543ea6cf2c4d71eU, 0xfcf622fd4918c403U, 0x3142ad00db241614U, 0xeafd1afa0007cd17U,
  0xf2efbcf911fff2f0U, 0xee1b3f0c30e51699U, 0x1c232d08180e5503U, 0xbcd221be0dbf0f0U,
  0xfcc7eb09241a37e3U, 0x1bfdf6ef154636f7U, 0x22010e30fb1ee30eU, 0x321e1410de2ae4fbU,
  0x310402cc217f1c0aU, 0xe12f706eaf02cd7U, 0x650d15da1829fdd7U, 0x12fffdfadedc40c8U,
  0xcd1df40e0a1206e1U, 0x399b21fb1ae41625U, 0xe9442a135af61c04U, 0xb61d93bd23841c3U,
  0x2a1c150ddfff0c43U, 0x18f722f033e20804U, 0xc0ce4cf9c8f021ffU, 0xec306204d30701baU,
  0xe0bd3022001903cfU, 0xf824fb04430b05e0U, 0x5af8d3eae9cb19daU, 0xfcf9df201afeb7feU,
  0x9107d70348fdff3cU, 0x1dffd8d7f7c60dd1U, 0x431332708fa47eaU, 0x641a2122f9f2c121U,
  0x6832b30fe70715fcU, 0x3d810f09c41be0d4U, 0x18331c1201301ff8U, 0x26faeaffe3bf11e1U,
  0xe439b0f8be21f7e5U, 0x32e6f001a80e040fU, 0x26627f3327060feaU, 0xf1e7fe009dbadbc7U,
  0xccd6dfd5162bfcceU, 0xaf10dfceace2cf2U, 0x2a0c383dd85e021eU, 0xf81fc30bfce922c9U,
  0xb5d425eb4419a0cbU, 0x3ec073b01f45004U, 0xc56de93c1f022e4fU, 0x2f05560ee826cee1U,
  0x282811fc2ade0129U, 0x26aa07e6cde318ccU, 0xe4e9c1f1ef1afdddU, 0x2e2bf0e2e0e35c06U,
  0xfaf72814cc42d9ebU, 0x13aefee76debfa1bU, 0xc8eacbf3c1ee25f9U, 0xd4201443fb0d3601U,
  0xe4ce444381f9cd3dU, 0x25d7f51e20f930edU, 0x44ee48210820e517U, 0x6bdecf52dfc32f4U,
  0xdeeaafffe707feccU, 0xf8f2ab1ccc6b15edU, 0xc9f50b093909eac6U, 0xec0ee50f1af107e2U,
  0xed1fdee4e7f6e600U, 0xf49ad3110b17ede7U, 0x4bc8b604ff1c81c3U, 0x2106feebf317d7feU,
  0x21405c70824cd25U, 0x1205b8f511f2cd1dU, 0xe40f080eeb0c0b16U, 0x7e9e8badbccc90fU,
  0xd2303a0afdcceb33U, 0x80f2215cb1f0104U, 0x3a0ce20a1a13fa03U, 0xfe2b041107e5c4f0U,
  0x2520fdd22137f7e4U, 0x2038d6d80019fde2U, 0x1b0feb2c03c81c59U, 0xb805420851cc0f36U,
  0x58e11c0033f7d9f7U, 0xec1abcdbff18b41fU, 0x234c5f9212401d9U, 0x92a2fd42bd3f814U,
  0x1d1a57df10da3900U, 0x1de626bb1cc0f6f0U, 0xd70a30d72c1a48eaU, 0x3627ff131e01ad7fU,
  0xff0d5927fea8ccb6U, 0xfdb501ce2dd9ed09U, 0x2c00b5e7cae9f4fdU, 0xd208e5efd84c4439U,
  0xf4f2d4e550cc38f7U, 0xe60403141cf5d914U, 0x4fd8e7e4e316aed9U, 0x24cfe941210f105U,
  0xdec20b2e1f50e932U, 0x2b1bfeff1cc9c7bfU, 0xee241b0b2e3bc4bfU, 0x2e13e6da14cb00b3U,
  0x32ddc422dafd2396U, 0x5c3a35223d6e44eU, 0x2ec15083ba8f401U, 0x2fed20e4fcbde712U,
  0x3d3d07341bef3b1fU, 0x49d52ca83143f4d5U, 0x200b190dfcf24723U, 0x2c981fd29f91a19U,
  0xd4e22b1216ccdbbdU, 0x41e7fb03fd50b526U, 0x1511d401f0e86c4eU, 0x2e2ac8194f01040dU,
  0xdde43bb2b639cc3fU, 0xe5c82efee5a82ef3U, 0xfff6e4f1be0209f3U, 0x16e2bbff4fdff2cbU,
  0x2be004fbdf1922e9U, 0x28defdfe46e30705U, 0x52e2d1fd32ee9e1aU, 0xd3c4f8fcde04eaeaU,
  0xc522f00c03f40fe6U, 0xebec0916061fdf38U, 0x3c9d172f003dfbeaU, 0xa70dde26defff11eU,
  0xc6f54500dfed1ef4U, 0xffafe4716ed0be7U, 0x1d25ea0a0a48ed1aU, 0xf8daf9fb26015c2dU,
  0xf4e934cff5e2f681U, 0x4231baedf5d407f3U, 0x5821cee2111932efU, 0xcf813fa310fc2abU,
  0xdf2ff7fe394bfbc7U, 0x8fe13f5130161c6U, 0xfec3d5ba67ead218U, 0x13f44b38ed9ac8d8U,
  0xbe3521cbd8588e03U, 0xf500f3e234a40d43U, 0x25e6ff67ba037f18U, 0xcaf91f05f5e5d1f3U,
  0xd2e5ea0f124cde1dU, 0x21e3d6e8900a2f15U, 0xdae89ee80d2c04feU, 0xf2be63eefecf6ceU,
  0xf417dbf13228c1f7U, 0x1922522f15a30f60U, 0xcd4dfe23e04ce0a3U, 0xa742bbadd324e0a3U,
  0xd0e7fabd2707e3d9U, 0xfdfd1ad7e0d6e834U, 0x62d1dd504e8dc49U, 0x2df4fb2e07fd31cbU,
  0x172dfb2a0fcb1410U, 0xe92cb6031a3120e0U, 0x40fd0f40bf20cd02U, 0xb290e60c222aca4eU,
  0xe3f6d92dc9b88facU, 0xd6fe39edc3fcf03fU, 0x121b200af513d2f1U, 0x12fcdd06188100d1U,
  0x69dd971cd3b9e189U, 0xe0e9a74e05d9cdd2U, 0x5bf7f21901260c09U, 0xd9b2f0db32f934e4U,
  0x4a3017fab8ebf76bU, 0x122218c8d2f3d5f5U, 0xf409e2b711c800e0U, 0x1efd10e3e6f712f3U,
  0xf90f171ff2d011e0U, 0x35daefbc25d73117U, 0xd0a06ffff35e2f6U, 0xc8f3df16ec27eb19U,
  0x62feb02150b0f18U, 0x324307e00105eefdU, 0xfbff0ee9143332deU, 0x29bae2aee8fad2b0U,
  0xf125df670fb7d36bU, 0x54211dce7fc120f5U, 0x5ce92d3cd8f812f3U, 0xd7ade267c315e2d2U,
  0xfd4ad10b55fcf71aU, 0x4363729d3cf34bcU, 0x324e40e3da1113f6U, 0x350ff00a82aba6eeU,
  0x33c6064e21c0e93cU, 0xd12f34ed2c812c8aU, 0x3be71c2d11e8030fU, 0xce21017acf17163dU,
  0xebd556a61210760fU, 0x54d624f30b25e4d4U, 0x1031dcea2fe7722aU, 0x84ac21223ff31fbU,
  0x1927f3200e1af436U, 0xf8f0091d255426abU, 0x18240d33f23904f1U, 0x3c0546101ff72c0eU,
  0x21a4cdc411b0321U, 0x44dafaf8ddd428f5U, 0x651238f9e2ef08faU, 0x21dd1ee8d8e0f423U,
  0x6156d0b16f4c44dU, 0xe3ed2ef43816340dU, 0xf8ddf8380720d1e4U, 0x311effce17fb40cU,
  0xf3cff90250381f09U, 0x1ad297c8e7fed3f6U, 0x9e3cb1a54e820b3U, 0xfaa622d905e3e305U,
  0x30004fce5f1f3f6U, 0x61b0731630ba5ccU, 0x9dd1451e44703f7U, 0xe23b26dddaef17c1U,
  0xf94cfbfef4e803dfU, 0x3c15bf15d5de6debU, 0xd8f044da4fc8454dU, 0xfaae08b2f235eb5aU,
  0xcdf22df3013d3e2U, 0x30db274fd9680158U, 0x1bfc0af244d4f434U, 0xfc8eb3fbc553616U,
  0xa7dec80d5b2953f2U, 0x4a361ffd262a26adU, 0x6f881edfe35f1a1U, 0x6d2c1044b0151e34U,
  0xce29d66fd90cf012U, 0x40fd3e4e2b6c444eU, 0x25c6fec9fe14f8beU, 0x16fadced0ff20122U,
  0x1a080c0414360726U, 0xf74b0c050fc2e0ccU, 0xd814eeec21eceb21U, 0xfef0f56009e21905U,
  0x15ffd832d3f7f213U, 0x470dc0f838d7f6d4U, 0xe0f31017dcfed7d8U, 0x50fe91f0924f039U,
  0x3d3e533c70c21f0U, 0xf4591d19d22f210bU, 0xe63a2612fb0ee3e7U, 0x1bbfe1fc1fcc491fU,
  0x24e0a2edf216e42fU, 0x4f64b7fe7162ccfU, 0xdc42b9dcf30de6afU, 0xc2202fdf8fd29b6U,
  0xc817f51d0c24dbacU, 0x2f1edbcccecbcf18U, 0xdcb2f01601fe1040U, 0x6ed23cc4fb13cfbU,
  0xc1816526a618dde5U, 0x2ffebda8d4bc0fe6U, 0x15aee405382fe9e3U, 0xfee8ee43350d2640U,
  0xc1e3df2decfed4deU, 0xf9f40a37bfda0619U, 0xdbeedf55e6e6432aU, 0xeadfd4f4e2f20824U,
  0x8ebb9be8f2f8b714U, 0xe1084a1329c7220dU, 0x30e4ebcf2e4c5085U, 0xeb17fe4020c9a8f7U,
  0x28f3b761a6287322U, 0xff3ec0f4d4f6e71cU, 0xfb11f01f5318f076U, 0x1bf0e3032a002c55U,
  0xa622f0422d03ffe4U, 0xf902f2fafb6c00e7U, 0x44f236eebd3045a5U, 0xe17281da282ebf08U,
  0xe74748f953e8d26eU, 0x16060db4c50d0fdfU, 0x1cfb0273c407f6f3U, 0x2d12fac262222300U,
  0x25f344fec8b7df0bU, 0xbfda08eaf5250cf3U, 0x1c13e1f1d82f1f01U, 0x3117f4e1f4c4e6bdU,
  0xdeeda0f0d2de7fc8U, 0x100809cb59f94ecaU, 0x55ad211159283b2cU, 0x31cfe5131cec0007U,
  0x304e0b1d212e0e2eU, 0xfcb010cd2f90ef5U, 0x1a0099e260bdfed3U, 0x130ac5e8182fda03U,
  0xcd8b40e322ce9edU, 0x25a6e6304b23aefcU, 0x2d2a24e2abd5e9edU, 0xe34a11160cc86901U,
  0x29d50c09fc25d815U, 0x31ddcc37cddb3a05U, 0x1b01f10420f4e212U, 0xfd15270bce18ec15U,
  0xf117a733df461ff1U, 0x1ff9bf1e20da1fd4U, 0x23c0ecb9ea81182fU, 0x6b93ed4f021ff7e9U,
  0x9ed399e33e2061cU, 0xd1e6021700fcf1d3U, 0xd1d3d5f6d0f401cdU, 0x15f00bea6401a398U,
  0xf42ef7ecdc1fed14U, 0x5e3b46a6390403faU, 0xc23ac3ff0b30d906U, 0x34191941522cdaceU,
  0xe4522019bf2bdd2fU, 0x17b03001fd5dfb24U, 0x2f0ee507f918f315U, 0xe9e2250ef501f9e8U,
  0x3007fbee0f101729U, 0x280205decff200beU, 0x10f21318333f251eU, 0x7f19f444241800cdU,
  0x240208f3c045d8ddU, 0x813c1eaf4f60d02U, 0x2ef8d303e4e401cdU, 0xfdd7171bc115e5dfU,
  0x5ddcf1fd4f5fc28U, 0xe8f21fdd12f848ebU, 0xf822170b00de0bc0U, 0xf0f3ea1af1f0050bU,
  0xfbfb075a1609fb02U, 0xedfde8e016e418c5U, 0x21e9072b3317f801U, 0xf4aee40f19ea200fU,
  0xcfa90a180a0ce3edU, 0xfbcdc5a8dcfd15d5U, 0x1bb4e5fbe7e5f31dU, 0xeaf53c0ad2fdc1a5U,
  0xf2c704fb1fdfe71bU, 0x7d223e400ef0cd2U, 0xd729dc16e51804bfU, 0x34c9fdea282afd0eU,
  0x25b82a97d40850e5U, 0xc6fcd1ede5dbed09U, 0xecf226283b15070cU, 0x5921e8004b22fffeU,
  0x23dd3eea18e781bcU, 0xe4cf1bee27180728U, 0x3deb04dd26141006U, 0xeeb64a0b4a5125d4U,
  0xe1e6814ff501d81eU, 0xf9efe912d4dfe198U, 0x1bc0800e7f13307U, 0x121e412e3eae3f1U,
  0xa2e2001ff6b8f022U, 0xea013117db060caeU, 0xf82516f7abf0d705U, 0xf924e104162de218U,
  0xb4ddccea31946d3U, 0x5c04bdde0b0a04faU, 0xe91abd4d30da2306U, 0x26ed0b0e6e8ff9e8U,
  0xfeb1653b1431b3f9U, 0x181813341fef1008U, 0x1b23da2c8140dbfcU, 0x260a303d022b2626U,
  0xf43922e317477c87U, 0x6dfd78f7eeb01864U, 0x30db2551cee2fb3eU, 0x17cc31ffa0e806f7U,
  0xb7f4d30276140404U, 0xb1acd5f1f1d709bfU, 0x21a2cff11e14d004U, 0xf529ddd5ea62dad9U,
  0xb50215dd043ff0d1U, 0xf7e8c5e65c0f44fcU, 0x4af1b5d20dbd45d4U, 0x1ab50de5292e11ffU,
  0x33131a09c425011eU, 0xe8e4af0d22f0eae5U, 0x25df2336114df9cdU, 0xefd744faf327c79fU,
  0xffcd214fede838f7U, 0x32250cda0412f515U, 0x6d4e1fc552cd330U, 0xfdf1dd32e901c5ebU,
  0x16f81c33d4bf1431U, 0xf8f6e7d0f2d4fc0bU, 0xf9bb00c12acce211U, 0x3d0081d04a602cdcU,
  0xf30aff372015eee5U, 0x1d399cfebb09ef1bU, 0xf909141cf7de0e10U, 0xe0011247bafc2a19U,
  0x3316193f1d36d63dU, 0x40efe10d93ffc44U, 0x9e50121f0cefdac5U, 0xe8dcff1b34040b2fU,
  0x28cb15df0b0dd2f9U, 0x911e5a4e3ab0922U, 0xf7411d37dc1d1e0dU, 0x4203b63afe2156f5U,
  0xcad4e3c7b700f4b9U, 0xf7c2b7fc30ad780dU, 0x7ece81263819e45aU, 0xfeab10e01de035e7U,
  0xf323462345dd31e5U, 0x624d4cd624bd8deU, 0xe529050bd5e45d06U, 0x3af9cea9d11838a0U,
  0x5eedb3eaf5e913f5U, 0x27182113ab1cf2daU, 0x435f3060b074612U, 0x321601f60a2a51cdU,
  0x2909ebcbdc267f1bU, 0x4d02f9bd39d932cdU, 0x1a2603ff0d3e1253U, 0xe0fa0718c8fb070dU,
  0xecdb5003ede74424U, 0x371216fcfaeafe07U, 0xcbf63bd5025618b0U, 0xd1ceec2e2c2d95ecU,
  0xead7e62a0ad92f39U, 0x29021c031f26f102U, 0xf1ff1cf0246cebc9U, 0x273fece10cf7eefbU,
  0x1629f81713fdffc7U, 0xfff7e7e9ddc9c224U, 0x26cfde8127c0b1d2U, 0x3c2834f6390ae73aU,
  0x28ba361e2fd9b52bU, 0xf1f4f9f1bccae00eU, 0x26cc05f3ccadf943U, 0x45e9e2c35aec281bU,
  0xe4233331f700e112U, 0xfeee07f14028cfe9U, 0xa0be40ddf2b83ebaU, 0xf4f30c42f1405e7U,
  0x2ae0f6f0e3e33936U, 0x51df2ff02919b90eU, 0xf408053ae3401a12U, 0x2b13e72e0ef2fdc0U,
  0xda3054fd73ba82dU, 0xddc227e408f7a00cU, 0xf2d70c21191200f7U, 0xe8c0d3abf1c6f3e2U,
  0x1a1b0817ea02fa0fU, 0x1f2dfce2efafe1d4U, 0x90df83ec933121eU, 0x2628c1ea20f1e305U,
  0xcfef023926eabee3U, 0xe32fc004fb0bfde8U, 0x24fe27341f00262dU, 0x19cfdfb4f2230922U,
  0xdcee13f367de0d03U, 0x7fdebb31c0223713U, 0xe731f620e3d72c23U, 0xdb44c631d5f12600U,
  0xeb16adbaee35aedaU, 0x1abc6e66fad032d8U, 0x220fb73473264f6U, 0x8fe2ecac8110e95U,
  0x2627d41a38dcc602U, 0x36234c1704e91eedU, 0x1ce50be0355be004U, 0x490ef3b5c105f9a0U,
  0x332dfd4ed09d8e2U, 0x3b1300c7ec59ed07U, 0x1e2bdc483604e4ebU, 0x2deee22943bc3deU,
  0xb0eeab77f13c1aeU, 0x20ee01b9caf1d7efU, 0xd44c271f2dd21021U, 0x3caa52900f6edfdU,
  0xc326113db3ec1c29U, 0x313a340efb4b0907U, 0x26ffe8fbf719f7f5U, 0x2c073a15f809d7dbU,
  0x62e09f3f71bf017U, 0xfad940001814c0d8U, 0xdf05eb0bf0e9fe28U, 0xf31fe550dcf2e39bU,
  0x2521d4d0172308deU, 0xc9fdeaddf80512ddU, 0x120c29d0f108fd3aU, 0x16d00323e01d00e3U,
  0xaf0110de11ad7caU, 0xed1c2bfc0b132e22U, 0xa49fc0fdbea2bfeU, 0x13f42524c2f6f326U,
  0x2858c9cbff02d8c0U, 0x7fce274c12fa20f9U, 0xd1fb2e39e0f19409U, 0xf30326da43121eb9U,
  0x90581243b1daaf0U, 0xd396f802b0df36ecU, 0x24f347241623dbeaU, 0x5f826be35fc35ddU,
  0xe2e122052cfdb1ffU, 0xfa09870cf0063aecU, 0x3f23f4b1d7de281cU, 0x34d4b8cd24d6242dU,
  0xc5cdf2e21006e54dU, 0x2ceaedb4feecbcd5U, 0x22043c1152d4ea2aU, 0xcf20c1453e80d92U,
  0x18feffea31aed02U, 0xf9c8f22837b8129dU, 0x34b2bf42d5dc04c7U, 0x9dc4b6f1062f050eU,
  0x7ff5f6f407fd0bd7U, 0x201bdf3bdddd2d9bU, 0x29dddd0ad01dfd25U, 0x92fc0e708c0cc0aU,
  0xe4f3e7323efcf62bU, 0xeabe4008cdee61c7U, 0xd8d4d9140ae915e6U, 0x6d6025ee2211608U,
  0x61603a90235531eU, 0xf5fe02c5dd1d20c3U, 0xad7eb51946e114faU, 0x6d115f63a2d07e8U,
  0xf84eea3cd5e1c80dU, 0xdcdb332e2ce3fceaU, 0x55fb23dd160df8baU, 0xd72cfb42f712fabfU,
  0x617bd2a39f9f9e4U, 0x22f21126fafcf9bbU, 0xa0bfae84ffa134cU, 0xec2ce3211de5e0b2U,
  0xc6db27d044f40535U, 0x57f8fb81b9d663b8U, 0x2bfe0600fc8beeffU, 0x3062b7aed81116f6U,
  0x5c1862cde8f832e5U, 0x7e2aeb15fcf13b30U, 0xf52af30304611436U, 0x21f91f0df11cebfbU,
  0x471047cd27e91f43U, 0x47d820430b1cd30eU, 0x1df53be6200e2735U, 0x3b1d3ec46b69a14U,
  0xf18108b4175647e4U, 0x6a0c2be62611ee2dU, 0x7056ef3d1d330730U, 0xdeabcf32bef6f1e3U,
  0x565ec34bfb21f511U, 0xd833da59f2ebefd9U, 0xae8fa3e07e7170cU, 0x4df221d3134bdabU,
  0xdae0dcdfea05ae4fU, 0x1be4252607512801U, 0xa372f005e4d0dccfU, 0x2c9eb0633bd01fdU,
  0xe80b1365d148e3f7U, 0xfdd9e610dd3d1027U, 0x32f6481b013432e1U, 0xf2ea2c0a1e0ef2e6U,
  0x1819093b25db25deU, 0xfd24e7fd08cb11f8U, 0xf709e5125a1cc523U, 0x45fe0221c0f928f8U,
  0xf80cee20151ee913U, 0x28e4bfff3700f9e2U, 0xf4ef17ece4e8ccebU, 0x321681e9034fd9a8U,
  0xa351b0120e9c3e0U, 0xc39ef09d21407f7U, 0xd109f90e44ed09edU, 0x1b281011fa0d05f4U,
  0xc6010538c614e4eeU, 0xdec027fff6f5f51dU, 0xfc6707f92038fac6U, 0xa3ff13e8fa30eddcU,
  0x51132ac6f12f6700U, 0x49fdc9dcd1a5cc81U, 0xe7f1ed18d5e9b02eU, 0x19bf2fcc3dcd38f0U,
  0x19ecf15acc1541feU, 0x23e4adb918d11de4U, 0x17c723ec10f1ec38U, 0xc3e31b1f354b1719U,
  0xc325cafae200edefU, 0x36ec23e94f09da23U, 0xba14262a0ed929d3U, 0x2cf9e6291deae7f4U,
  0x47af0d501cb8ccf7U, 0x261f01fe59e038f6U, 0xde0536d1f430e1d9U, 0xe0db1ff41f30be06U,
  0x6211f209bf68fddeU, 0x6eb21fa0ed910acU, 0xfcebd181e49b0a24U, 0x1d15b90018ff6108U,
  0x1a0d15c128ef1415U, 0xccdd11b807143a24U, 0x34f2ca043bf319f7U, 0xde47b11728d9f8b4U,
  0x20a0a4cd6e3fd1cU, 0x13abd55efeb25f8U, 0x3a472614ec10322bU, 0xf1e4fb38071d1b0bU,
  0xf9381130d01d5049U, 0xf80ef712dad4cd15U, 0x173df9dab51dfe0fU, 0xd902cde84621d7c8U,
  0x6b18e643dc442301U, 0x2e16112d49ad4af6U, 0x2b3b3e24cd1dfc34U, 0xaa1b46325f5051fU,
  0xcf52c93504fd17ebU, 0xcbdabb3338e447baU, 0x27d5273af202d61dU, 0xfaf0f51e3516e3efU,
  0xdf24bb201e171ff1U, 0x1ee9fa03137f0bdfU, 0x193fd0e902ed03d5U, 0x3f32d53506b3b81eU,
  0xe5158f1cf81e201dU, 0x200e085f13f70caeU, 0x241c20f431031beaU, 0xd0d6d0a75cfeafbeU,
  0x24e6b32c52e4b3f1U, 0x11f211cfc120b4U, 0xdd518d87fe2021dU, 0xfbc014f82612cffaU,
  0x3cf0011514ebb50bU, 0xec1b54e709e127d6U, 0xe34bfa2ed1b05ce4U, 0xb4ac2ce0561501c9U,
  0xe2b54f4fd414e735U, 0xfa2a06efa02fdf07U, 0xfefbfd37c226fed9U, 0x3a521bf7f2e20737U,
  0xf6b2ceb0c8d4efdeU, 0x1d21e736be1af825U, 0xae0f527ee51e3fdU, 0x54cb2ae7091bfed7U,
  0xd211250602f2e7faU, 0x3c3bec33e2ad16f8U, 0xd57344e410e6af05U, 0xfab905c6e4020cc3U,
  0xd4ecfd201b27e8fbU, 0xf4d4c82bdb000be1U, 0xd40df50f3403f6c3U, 0x6060934ec2508eaU,
  0xee02fa05e2e34215U, 0xf637f3c0fcf6351fU, 0xff0ef8ea10c3eae2U, 0x7fc53a1f0b4e21c0U,
  0x23a02fb0b14d0feU, 0x29d502eafa09e15eU, 0xa390c2be91df5e8U, 0x58cab32266ee05efU,
  0xffc0d6aa7680698U, 0xf8d01fe7d50def2aU, 0xe3b1e83d29587f00U, 0xc4c4b0e0c6e63ac6U,
  0xe522c80805dd0fe2U, 0xe866d9baf800e700U, 0xfeb70c30cde5f4adU, 0x3df727a7d6f9c7e6U,
  0x2ef73bfb57cdbce1U, 0x102251b600b438f4U, 0x304fe2578127e14bU, 0x493baa282f261a01U,
  0xea09d510ac54dfa0U, 0xcdc54d50e92440c7U, 0x40003fde52a1895U, 0x28d024ddc5d2a902U,
  0x29421545ea3b0325U, 0x36f648cad3deb4d8U, 0xadeca6d55bf5de14U, 0x2cf961ec06c02bf2U,
  0xf5c8f6dd0e1a011bU, 0xbe13b3d223db0e28U, 0xadae4101dbeb4584U, 0x63181dc49eedceaU,
  0x2429fe554395ae17U, 0xdd2138cfe5e7e4cbU, 0x9d521c04dc2b0effU, 0x5e061918ee296235U,
  0xfa4e00cb1aedf726U, 0x424efeadc990e35U, 0x1aeef1d7b3f325eeU, 0x1f1921110af8040fU,
  0xdae4bd4a213f1727U, 0x808f1d2f1eff90fU, 0x191926c92ae30d0dU, 0xfef0c13c06044d0cU,
  0xf4ec17ea0c07fffcU, 0x13d7fcfa16132209U, 0x110ac8f6df0050eeU, 0xf9e5f8f933242e25U,
  0xe4f7feea45cee84eU, 0xf03cd315e91b1bf1U, 0x2f16f70cd5d814dfU, 0x36ffe50d3008038bU,
  0xc027d1fdfdc5f6c3U, 0x25d918017f13d1edU, 0x13ee2907182104c1U, 0xf2052835ede2ef32U,
  0x40e7c8eca41fe5efU, 0x15811fcf22afe640U, 0x22dae726f2f91411U, 0xdcf3c810e5f3c1faU,
  0x180b44d6001dd1f2U, 0xce0d370d05311526U, 0x183816f803e3fcf1U, 0xe1c609d406fb13eeU,
  0xdefc1d2932f016e0U, 0x1ed9f1b3b9100ff3U, 0xcf16cd44e20d27eaU, 0x813e2344d090e1fU,
  0xd20d241201e31818U, 0x25d3000aead5e700U, 0xfab1d5300f50e6d8U, 0xe20f18d4490bf72fU,
  0x3c244f1395ffdae4U, 0x5d3feb2933d51bf5U, 0xfd45f4e9229db323U, 0x1fe60cbc3dd53909U,
  0xf1ea5314fc0608e8U, 0xf4fdb2d7c519e481U, 0x43d748f7f3ef10ddU, 0x24f6d1f7fe16f1f6U,
  0xfa15add1e5513b13U, 0x708b9f7ef1e18dfU, 0xfeec1b050240da1cU, 0xe5db2c05d9412109U,
  0x20e80c39dd32d7f4U, 0x3407e1d342b2cf2dU, 0x154beff9a5f6f206U, 0xe30feab8aaed13feU,
  0x221cccfb9d15caedU, 0xe0bbdd9e1cf11513U, 0x2cef19a543c23747U, 0xd281000210db17feU,
  0xfa2f302c230d0df1U, 0xfd0f18e2d534080dU, 0x14c8f20620b82118U, 0xbdd808e9892cf246U,
  0x9dd4ee3907ffc8efU, 0x2bee2aeafe17d7b4U, 0x15111de4140d2828U, 0xf7f3312b4e18d3e8U,
  0x7d1f5cb06a6d118U, 0x1c0fc823da12fc29U, 0x70dc22eea00f6d2U, 0x33e9c1bdd8fffec3U,
  0x542a15e13c0321feU, 0x2c2844052cf507daU, 0x2f0fbb0032eff4cU, 0x45f3f01fe2ccd111U,
  0x2240f7fbdf2af3ffU, 0x1eedefbc37adececU, 0xffdef3cf2b432625U, 0x4f5e007c012f934U,
  0xfe01f5de40ec05d3U, 0xfff2e216bd02c518U, 0xc70ee93511e807e4U, 0x9ef7f30e5c04128U,
  0x37f1fde30406ec0cU, 0x34cc011e033d1be2U, 0x251cf41c230943e8U, 0x281c1e1d4cb512d7U,
  0xf148c1cc9cfbac32U, 0x13a9e7c4c3100afbU, 0xd4bee8f92fef0906U, 0xd7eda8cae51501f5U,
  0x10d609f8b2c905e9U, 0x75defeff5f20c33U, 0x58110e60dcc591eU, 0xfc6cb06d4dd3dc4U,
  0xb6003f003304e2ddU, 0xfe1ddb9de3b415dfU, 0xe90a54f0fbbcf96dU, 0x1200565a0012efbcU,
  0xfce3fcb2f518b3f8U, 0xe623156104e8cc22U, 0xc115d1d731202afaU, 0x25e8e5ed0cc012ecU,
  0x80f0957f904fa0bU, 0x50aefeb54bfa0731U, 0x752bb8bd2b2bc87eU, 0x4246cffa5bff545cU,
  0x16ed0d1a0bb55633U, 0x38b8f8ab067e01e1U, 0xe3ce441d044bde02U, 0x15081103a11dc2f1U,
  0xf4c731d5ee1206fbU, 0xf6e67f24d006b0f9U, 0x26121dc935f8f205U, 0xbd01ecdbe93e1da2U,
  0xd1bc88fd40cc181fU, 0x28d15ccd0f052617U, 0xb9fae9d44314352fU, 0x416242fb4fe0e8edU,
  0xb89991b1e1d08e6U, 0x5f4c929eefbf2cd8U, 0x46f5ff1225082e3dU, 0x1faff423ff8de62eU,
  0xf2d43808200bd12aU, 0x4ab00f1422fc272dU, 0x1d05d81157f2bd56U, 0xf3dffedbe6f1f3f8U,
  0xdf77cbc4d9421581U, 0x6f44fcc7f0cdb3efU, 0xc3059609aea557f3U, 0xed04db2499f51d2cU,
  0x13fa05bf085ac6f8U, 0xef121874e7f10114U, 0x2af52606d60fe9ffU, 0xe4ee07e23f0fd5ddU,
  0xea25e61bcef92a21U, 0x250c1dd7de0b81U, 0x1917f7f923ecdc36U, 0x69cd2fd829fc2510U,
  0xf7ccd507b6170a18U, 0xe826fbf1f2fb9f0aU, 0xf93339ff0bd40ae6U, 0xcdd2f20c20260efdU,
  0x416ec0bd311d5f9U, 0x4df0e5ce11134c10U, 0x4d9ed23fd3f00c3U, 0x48f940fb32c3dd4eU,
  0xe330e51cea2bca53U, 0xebeb140f0cfcdf10U, 0xe4ca17010aea1b02U, 0x1d8dd43804cc902aU,
  0x7c5f2748dfefd3e3U, 0xcd183e09ebf325f4U, 0xf40844ef500414faU, 0x7ae31edfef0acaa7U,
  0xbee35925ed55d3a7U, 0x110dd50ac6253d08U, 0x53024fdfcd112c5U, 0xeb2701ca42f23821U,
  0xe2e817cf1f342139U, 0x759cc256d23317c5U, 0x1ae81391fcf106aU, 0x22084a0412e638e5U,
  0xc5a21b1a1b4f0b75U, 0xc30b2c4c10f5fde7U, 0x15d0db31b95445eaU, 0xeccdeebf574d4e0U,
  0x2f26cbdb07e6b130U, 0x1405eeebf4d52206U, 0xcc2b75de30b9fa43U, 0xe9eee30209fe10d2U,
  0xfbcae72229e6fd81U, 0x25cddf3b0f0b3dd8U, 0xfd2814c0f21ef42fU, 0xbf1ad80ef93f56eeU,
  0xce34d2279ebf2af7U, 0xf316f10428ea17a4U, 0xe8499b7a1adc08e7U, 0x4bb23d4f263e48efU,
  0xeb19cc5aba4cfe16U, 0x5cd9b92c0adf0c5bU, 0xd0811d407348dee2U, 0xebb1cee323da0ceU,
  0xa9f414ff2969ec04U, 0x4e0ebccfdeaee0eU, 0xf5a60f34fd18d3f1U, 0x16a6390f21e2c51fU,
  0x1d61f4be864ee02U, 0xe6adea3dba1f400cU, 0xc7f61107541e9ef5U, 0xda11221fcf0b06d6U,
  0xd71ae40dd01521daU, 0x42bc034ccb2ae7d0U, 0xd5ebc5a2f1f114b8U, 0xf647321c01dca2ffU,
  0x18befb2aac2f284bU, 0xad0f258e7e4afa2U, 0xf616fc3f07139fafU, 0x1818e7bbf4e30db2U,
  0x3dfafe352129f817U, 0x67d017fe08ea0fe0U, 0x6e62eb4f3fd1c2aU, 0x1d46f80b0611a1ffU,
  0xbd11f9e7cf37ad0cU, 0x29fd25f2d4d4e5f7U, 0xb193df1d2f7cc4bU, 0xd0b0e7c6a3dc2dfbU,
  0x1e7b6f7dc36eac7U, 0xacae2151bd0f21bU, 0xd22be321811c0c14U, 0xdbaae43adae008feU,
  0x48ce27c731502a0cU, 0x42431305f3ed66eaU, 0x253e37beee4d30ecU, 0xb5eae4da0f320dd5U,
  0x1e3b03ba07e80e2aU, 0xeb09a5ddfe10ed24U, 0x21a45b40ea4cf20U, 0xebe0d3ee2d181822U,
  0xb10d125543cf17eeU, 0x21f2e4e309491de6U, 0xf5171a39240aff2dU, 0xe932ed341054e952U,
  0x23102bfb2249d22fU, 0x2ef8280ff35df6e9U, 0x3c011be2413eebe3U, 0x35e5d1b468da19aeU,
  0x303af4f01bc2cefaU, 0x1522141e7f2ab0deU, 0x190bd9de4b09d1d7U, 0x1007b0f52bba0c25U,
